#version: 0.2 - Trained by `huggingface/tokenizers`
Ġ t
h e
Ġ a
Ġ s
Ġ w
n d
Ġt he
e d
Ġ b
Ġt o
Ġa nd
Ġ h
Ġ f
i n
Ġ T
Ġw a
r e
i t
o u
Ġ l
Ġ d
Ġ c
Ġ p
a y
Ġ m
e r
Ġwa s
o m
ĠT he
Ġ he
i s
a r
Ġ n
i m
o n
Ġs a
i d
l l
Ġh a
Ġ g
a t
Ġ S
in g
o t
e n
a n
l e
o r
i r
a m
e t
Ġ H
Ġ it
Ġt h
i g
ĠThe y
Ġ in
i l
Ġp l
ĠH e
Ġ "
o w
v er
r i
u t
Ġb e
Ġ u
Ġsa id
Ġpl ay
it h
Ġd ay
Ġw ith
p p
O n
Ġ o
Ġ y
o o
k ed
Ġ r
Ġhe r
c e
Ġ I
ĠS he
l d
ĠT im
Ġh is
Ġs t
k e
Ġ e
Ġb ig
n t
c k
Ġy ou
ver y
s t
v e
e nd
Ġ on
u n
Ġha pp
ri end
Ġf riend
a ll
il y
Ġ L
Ġthe y
Ġw e
Ġha d
Ġn ot
Ġl i
Ġu p
he r
Ġwa nt
Ġo f
a d
it t
s e
Ġ B
Ġd o
Ġhapp y
en t
Ġ very
Ġ M
e s
Ġth at
Ġsa w
On e
' s
ou ld
Ġm om
Ġf or
Ġs h
itt le
Ġl ittle
Ġs o
Ġs he
c h
im e
Ġn e
Ġn am
. "
Ġt ime
Ġ k
ou nd
Ġthe re
Ġnam ed
Ġs m
Ġb o
Ġwe re
ĠL ily
Ġwant ed
Ġb ut
ou t
T he
Ġfriend s
v ed
! "
h t
ĠT om
ir d
e l
Ġb ird
a l
Ġa n
a ke
Ġto o
om e
ĠI t
u g
id e
Ġw ent
Ġw h
Ġhe l
On ce
Ġ is
Ġa ll
Ġhel p
u e
Ġl oo
Ġl o
t er
Ġ A
Ġup on
r y
o re
i nd
Ġf un
g et
Ġto y
i ll
am e
Ġa s
Ġa t
r a
Ġ j
Ġd id
get her
Ġ re
u r
Ġs e
Ġto gether
a ck
Ġc at
l y
Ġt re
oo d
i c
t ed
Ġdo g
Ġc ould
Ġc an
Ġthe ir
ar d
e c
ar k
Ġg ir
Ġplay ed
Ġh im
Ġb all
? "
Ġgir l
w ay
Ġr o
Ġg o
he d
m y
Ġa re
Ġ out
Ġl e
Ġf r
a in
Ġk n
he n
Ġthe m
u m
' t
a x
Ġsa d
u l
Ġbo y
Ġtre e
ot her
Ġha ve
Ġm an
Ġc l
Ġlo ved
Ġloo ked
ou g
Ġf ound
Ġs p
Ġst ar
ĠS ue
on e
h ing
Ġs c
Ġb ack
ow n
ĠM ax
a re
Ġli ke
f ul
s ide
Ġm e
Ġbe c
Ġp ark
ig ht
on g
Ġc ar
o p
el t
Ġ One
Ġli ked
Ġw ould
Ġm ake
r ound
Ġl a
Ġf a
Ġf elt
Y ou
Ġ W
e ll
Ġse e
ĠB ut
om et
Ġas ked
a g
Ġne w
Ġn o
i ce
ĠS am
ou se
Ġstar ted
ar ed
Ġc ame
ĠB en
Ġa l
Ġ other
oug ht
il ed
Ġs omet
Ġa g
Ġg ood
Ġsm all
s s
Ġb r
Ġsm iled
Ġs ay
ri ed
ad e
ing s
o b
p ot
Ġw or
Ġf ind
Ġe x
i a
Ġa way
t y
Ġp ut
Ġwh at
Ġsomet hing
Ġc o
Ġfr om
Ġm ade
Ġth ought
en ed
Ġh ome
Ġplay ing
oo k
Ġe very
Ġwa l
Ġm u
u c
a ch
ar n
ĠS pot
Ġr an
i le
Ġ F
i e
Ġ J
a ve
Ġag ain
Ġs ome
Ġla ug
d d
Ġh ouse
Ġd own
Ġf l
k ing
Ġtoo k
Ġsc ared
Ġp r
n y
u re
Ġtoy s
Ġle arn
Ġ You
i f
Ġw ill
Ġbo x
i ck
re t
a b
e p
Ġm y
Ġa round
Ġth ings
Ġyou r
ou d
Ġb l
u ck
Ġw hen
is h
Ġli ved
Ġf e
Ġthe n
Ġs un
a s
Ġs w
, "
Ġc h
u s
pp ed
Ġa b
ĠM ia
an k
Ġg et
uc y
T im
um p
T h
Ġl ot
is t
ot h
Ġt ried
a p
Ġkn ow
Ġsay s
Ġg ot
it ed
Ġwh o
Ġkn e
u st
Ġman y
nd er
Ġin t
Ġab out
L ily
Ġp ret
Ġd ec
Ġan y
Ġr ed
Ġ D
i ve
Ġkne w
a ce
ou s
Ġm ore
is e
Ġc are
all y
Ġp ic
a u
q u
Ġh ug
ĠL ucy
Ġlearn ed
Ġp o
Ġwa ter
f ter
Ġ v
Ġbec ame
Ġbe st
au se
Ġo p
Ġg re
Ġex c
ur p
way s
â Ģ
Ġout side
Ġlaug hed
Ġloo k
Ġal ways
Ġdec id
Ġsh ow
Ġu n
an t
ĠB ob
Ġro om
f e
Ġdecid ed
Ġh o
Ġbec ause
ĠS o
Ġint o
Ġe at
it e
Ġj ump
ĠA nd
Ġp e
Ġb oth
er s
ĠM om
Ġd ad
The y
u dd
Ġ ke
Ġon e
n n
Ġth is
Ġexc ited
Ġfa st
Ġn ice
Ġ E
Ġfe el
T om
Y es
Ġr un
Ġl ong
Ġto ld
Ġs k
Ġa m
urp r
ou r
Ġin side
u ll
Ġt r
Ġs urpr
Ġm o
in k
Ġpret ty
in y
Ġs or
W h
Ġt ake
o g
Ġs l
Ġe ach
Ġg ave
Ġmu ch
Ġg ra
le w
nn a
Ġro ck
Ġh ow
Ġst r
ar a
im al
Ġan imal
g ed
Ġne ed
Ġth an
B ut
v en
et ter
Ġto w
Ġ or
Ġ C
Ġu nder
es s
Ġo ld
Ġsor ry
g e
is ed
r o
ur t
Ġc le
Ġf ish
Ġwal ked
Ġcl o
a nd
Ġbe ar
f t
a se
a st
Ġha nd
ur n
ĠW e
Ġk ind
ĠH is
Ġt e
he re
Ġhapp ened
Ġj ust
Ġfl ow
Ġf ood
Ġl ist
Ġdid n
Ġanimal s
Ġh ig
p l
Ġne ar
Ġwa t
Ġ ide
Ġt ry
c hed
Ġsk y
in e
Ġs n
v ing
Ġf i
r om
Ġu s
Ġide a
Ġb etter
ĠA my
Ġb ug
Ġhe ard
g ry
Ġit s
Ġt w
Ġl et
p ec
at e
ab le
f f
Ġ en
Ġcare ful
Ġsh are
e x
Ġ if
Th ank
M om
Ġf ly
Ġst or
i al
Ġf lew
m ore
Ġany more
ĠT h
Ġsp ec
Ġspec ial
i on
Ġc om
Ġlot s
Ġne ver
Ġb y
l f
re am
Ġd an
Ġb u
Ġf o
Ġw ind
Ġd on
Ġt al
Ġcle an
or t
Ġg r
Ġlo ve
r m
b er
Ġe nd
ĠThe n
op le
Ġe ven
Ġm ag
Ġh ard
Ġsh iny
udd en
Ġf ore
Ġo ver
Ġc ake
a k
Ġb ook
Ġco l
Ġt urn
Ġf am
Ġb ad
Ġsa fe
Ġa fter
ad y
ĠA nna
udden ly
Ġpe ople
Ġpr oud
ĠE very
Ġsurpr ised
pec ted
L et
Ġhig h
Ġc u
Ġh urt
Ġc ome
im b
ard en
Ġdo or
Ġg arden
b b
Ġg round
Ġop ened
Ġpic ked
Ġl oud
Ġcl imb
ex pected
Ġun expected
Ġg l
Ġc he
il d
Ġ im
A s
Ġg ive
Ġwa y
a il
' m
Ġthan ked
Ġcol or
Ġbl ue
Ġst ill
Ġe ver
Ġhug ged
ĠF rom
Ġc all
Ġf ar
i p
ĠH er
ĠS ara
ĠW hen
N o
Ġof f
Ġmag ic
i z
oug h
ag e
um my
Ġ K
Ġjump ed
Ġsh ould
Ġfam ily
Ġp ar
oo l
Ġk id
Ġsm ile
he s
u ff
Ġpl ace
k ay
Ġwal k
Ġn ow
c t
ĠI n
Ġgre at
e m
t ure
Ġ qu
le s
Ġstr ong
Ġst ay
Ġu nt
Ġst o
a ut
Ġfore st
an e
Ġb ra
itt y
Ġ P
Ġfr og
Ġbr o
Ġunt il
o on
Ġbe aut
d y
Ġs qu
Ġst ick
x t
Ġne xt
Ġbo at
le ase
n ing
Ġhapp ily
Ġlist en
a king
Ġkid s
Ġt ra
i es
i ful
Ġbeaut iful
Ġa pp
t h
Ġhelp ed
Ġd ra
Ġshow ed
Ġclo s
b e
Ġim p
Ġstor y
un ny
o y
Ġwh ile
Ġtow n
re l
p t
Ġr ain
re ss
Ġpic ture
Ġbe ing
Ġre m
I t
Ġevery one
ar y
re e
Ġm or
Ġha t
Ġcall ed
Ġm et
Ġsto pped
Ġa d
Ġg ame
N ow
H e
C an
Ġan gry
g er
uff y
Ġop en
Ġw o
Ġtr uck
Ġke ep
Ġso ft
W hen
Ġc ry
Ġy ummy
Ġlo st
Ġb ed
ĠL et
ĠS ally
Ġwa rm
b y
v ent
Ġbra ve
Ġm ouse
ĠW h
Ġat e
ĠK itty
is hed
Ġd e
f ore
Ġdo ll
s o
Ġcould n
Ġwat ch
Ġle ave
Ġal so
dd ed
Ġf ell
Ġgre en
Ġfa ce
Ġtw o
g an
is s
Ġflow ers
b it
Wh at
Ġ R
b le
Ġno ise
ab bit
ir st
ow l
Ġw here
a z
o ck
Ġso on
se lf
Ġsl ide
Ġr abbit
Ġho le
l uffy
Ġbe fore
ir rel
Ġp us
ir ed
Ġsa t
ill y
Ġhe ar
Ġu se
âĢ Ŀ
H i
Ġp a
Ġke pt
âĢ ľ
Th at
Ġsqu irrel
e ar
The n
m a
Ġno dded
Ġex pl
Ġst ore
Ġc ook
Ġhand s
L ook
Ġbird s
Ġp ain
Ġgo ing
Ġfun ny
Ġha ving
d ay
Ġs ing
ay be
u ch
Ġe y
a ug
Ġcat ch
aug ht
ĠC an
ĠF luffy
u it
Ġy ell
Ġth ink
le ep
Ġc ra
Ġf in
B en
Ġb re
Ġfi x
Ġt ired
Ġb unny
Ġus ed
Ġloo king
Ġb us
an ge
a ir
Ġwor k
Ġw r
Ġ our
Ġp ull
W e
Ġth r
t hing
Ġ Now
Ġwa it
Ġk it
Ġs ound
t ing
Ġj o
Ġha s
Ġ G
Ġme an
Ġpo nd
em ber
Ġbe h
Ġd r
Ġsun ny
l ed
Ġother s
Ġas k
n g
c hen
Ġkit chen
Ġtal k
Ġfl o
Ġd if
re w
Ġp ie
Ġhe ad
ĠJ o
Ġre al
Ġf irst
Ġt ri
Ġmom my
Ġey es
ell o
Ġimp ort
H ello
Ġfa v
at h
j oy
Ġ z
Ġrem ember
Ġr ight
Ġflow er
Ġc on
Ġm ess
Ġpar ty
Ġco ld
ĠD o
Ġv o
Ġsw e
i ous
Ġsa nd
Ġ âĢľ
a c
or n
Ġr ace
Ġcu ri
im es
Ġimport ant
Ġd uck
Ġmor al
Ġsh ared
z y
ou nt
ĠJ ack
Ġ ice
Ġo kay
Ġad vent
Ġwor ked
ll ow
A t
Ġen joy
Ġd ress
Ġbr ight
Ġm aking
Ġcuri ous
Ġ own
Ġt all
Ġd ir
Ġh op
re ed
Ġh id
Ġfav or
Ġ ri
h n
Ġs leep
Ġd is
W ow
Ġfavor ite
Ġth ing
Ġbe gan
Ġm on
Ġb ag
Ġh ill
D on
Ġcl a
Ġdra w
Ġre st
Ġhe re
Ġy ard
Ġt ell
ĠF in
st er
Ġwat ched
q ue
Ġfo llow
Ġmo ve
Ġbe l
ec t
Ġc ut
Ġn ight
Ġag reed
Ġp ick
c o
Ġbl ock
Ġh un
ap er
ll y
Ġst op
Ġbeh ind
ĠTh is
Ġsurpr ise
i ed
Ġsh o
Ġh ot
A fter
Ġt able
Ġgra ss
Ġwor ry
Ġd ark
Ġtre es
Ġvo ice
Ġwal king
fe re
Ġflo or
Ġfar m
Ġli on
Ġto p
Ġdif fere
Ġp lease
Ġr u
Ġs ong
Ġbut ter
Ġt ail
Ġswe et
M ax
Ġsh out
Ġcolor s
Ġre ad
ĠD ad
Ġl ady
Ġfor g
is y
Ġleave s
Ġclos er
ig n
Ġcar s
Ġturn ed
Ġneed ed
Ġt ast
Wh y
ar ing
Ġw ood
Ġc ried
Ġdiffere nt
Ġlaug h
Ġd el
Ġpie ce
âĢ Ļ
er ed
ĠM r
Ġro ll
Ġadvent ure
Ġfi re
Ġdo es
i ke
Ġc r
Ġhun gry
Ġha ir
ĠS uddenly
Ġp aper
Ġfeel ing
Ġyell ow
Ġf ull
b o
Ġpr in
S ue
Ġto uch
ĠA s
A nna
S am
Ġw et
Ġfriend ly
Ġp er
o om
k en
c ked
a ched
Ġsw ing
Ġfr uit
i ent
Ġbro ken
Ġre ady
by e
pp y
Ġpr om
ĠTh at
Ġan other
Ġl ight
Ġpret end
Ġdan ce
at er
Ġclimb ed
w here
Ġlist ened
ĠBob o
Ġdan c
Ġrun ning
Ġon ly
Ġpl an
Ġg one
Ġsw im
bb ed
S uddenly
s h
Ġtra in
il a
nd ma
S ara
ĠJ ane
Ġclo se
a v
S he
Ġsm ell
S o
ab y
Ġam az
Ġho ld
Ġblock s
Ġwo nder
ĠTim my
Ġre pl
ĠA ll
Ġbutter f
Ġse es
Ġre ached
Ġwa ll
Ġp u
one y
r ed
Ġsl ow
Ġhelp ing
Ġd ri
Ġc ream
Ġc ool
Ġgl ad
a f
Ġa nt
Ġl ess
Ġbe en
Ġgood bye
Ġa c
Ġf ight
at her
M ia
Ġpus hed
ic ed
Ġfa ir
Ġmu st
Ġh ide
Ġmom ent
Ġwind ow
Ġ O
Ġs it
Ġball oon
Ġsn ow
Ġch ild
Ġexpl ore
ĠEvery one
Ġa r
Ġw ished
Ġb aby
Ġd one
Ġwa g
Ġst e
Ġbu y
Ġst uck
Ġper f
Ġth ank
Ġm ight
ic y
Ġnam e
iz ed
Ġtry ing
Ġb it
Ġcom ing
Ġb ar
Ġqu ick
Ġf all
Ġapp le
as h
Ġsc ary
Ġlook s
Ġbu ild
Ġdo ing
Ġw in
Ġunder st
a isy
Ġd in
Ġd ream
Ġdir ty
Ġhe ld
am es
Ġbook s
Ġm ar
I n
Ġbutterf ly
Ġle ft
Ġshout ed
Ġc ount
Ġrepl ied
av y
Ġre ach
Ġt iny
Ġthr ough
ot t
Ġd ro
Ġwh y
Ġa ir
Ġbr an
Ġla nd
ke y
Ġth ree
Ġpull ed
Ġsp l
Ġgr ow
Ġtre at
Ġbr other
Ġw ise
Ġwood s
Ġs ure
' re
Ġch air
i x
Ġm at
in s
Ġse en
Ġp ink
Ġcla pped
Ġpl ant
el y
Ġ owl
Ġcu p
ie ld
Ġsomet imes
and y
Ġf ill
Ġcl oud
as k
Ġsw am
out h
Ġj ob
Ġcolor ful
Ġremember ed
Ġbig ger
Ġne st
Ġm outh
p e
O kay
Ġless on
Ġjo in
Ġc re
p h
ou p
ro om
ĠThe re
ar t
Ġwa ved
udd y
Ġgra bbed
Ġstay ed
O h
Ġpain t
Th is
Ġcl ot
Ġcon t
Ġclot hes
Ġ ve
ow er
ĠA fter
Ġwa ited
Ġquick ly
c le
Ġwor d
Ġbro ke
uck y
Ġg ames
Ġc ast
Ġb lew
Ġg ent
ĠMom my
J o
Ġenjoy ed
Ġnot iced
ri es
at ion
Ġs et
Ġlike s
Ġpicture s
t on
d e
Ġse a
Ġhe avy
Ġmu s
Ġal one
Ġg if
as ure
Ġany thing
Ġsp ot
Ġm iss
Ġho pped
Ġwor ld
Ġturn s
or m
Ġy ear
d er
Ġb ott
Ġp at
Ġp ot
Ġp en
l c
H er
Ġm ix
Ġa rm
Ġb ike
Ġt ight
Ġevery where
L ucy
Ġw on
Ġtow er
Ġth rew
Ġhim self
Ġfollow ed
ĠB uddy
Ġr ide
m an
le ss
Ġj u
Ġj e
B ob
am p
ap e
Ġcom p
Ġke y
r ow
" .
Ġwh ite
ct or
Ġwr ong
ĠD aisy
Ġmake s
ĠWh at
Ġbre ak
Ġbl ack
are nt
e e
n er
S pot
D o
Ġde ep
th y
Ġmus ic
Ġpo l
Ġdel ic
ce ss
u ed
Ġforg ot
Ġbe e
Ġp arent
Ġcast le
ve s
o lly
Ġe m
i et
Ġwe ar
Ġh it
is ter
ou n
Ġqu iet
Ġr ound
an ce
Ġst u
Ġdanc ed
Ġv is
ull y
Ġwant s
Ġle af
Ġmon ster
Ġn ap
ĠJo hn
Ġunderst and
an g
Ġb owl
o s
r ot
re n
Ġb or
Ġtal ked
itt en
Ġd ry
Ġfast er
Ġcook ies
Ġbr ought
f ully
Ġle g
ro ss
Ġm um
z z
Ġs ide
t s
F rom
Ġs ign
Ġsm art
ĠIn side
c y
Ġrock s
Ġsome one
H is
Ġpo in
Ġse c
Ġsh aring
Ġfo x
Ġwe ll
Ġre s
Ġre l
Ġhapp en
Ġbut ton
Ġbran ch
ĠL ila
Ġre ally
Ġfin ished
en ce
ard s
Ġdin ner
Ġs ister
Ġfly ing
ed dy
Ġcont in
Ġwor ried
Ġe le
ĠT o
Ġvis it
ĠM aybe
Ġbe ach
Ġ que
Ġsec ret
Ġe l
Ġk ing
ĠSara h
Jo hn
g y
Ġto day
Ġperf ect
Ġri ver
Ġevery thing
Ġs illy
Ġsh in
Ġdan ger
i pp
ĠJo e
Ġchild ren
Ġg u
ĠSo on
Ġf ield
Ġfill ed
Ġf ur
Ġel se
Ġsmile s
Ġwe lc
ĠA t
Ġw ish
Wh ile
Ġsa ng
ĠE m
Ġg i
z e
Ġp udd
Ġsn ack
Ġeat ing
Ġreal ized
Ġpiece s
Ġprom ised
or d
Ġsp r
Ġp ig
Ġf ree
Ġcontin ued
Ġb ite
e ad
Ġparent s
Ġcare fully
at ed
Ġe ar
itt ing
J ust
Ġj ar
M aybe
Ġc ow
A my
Ġbl ank
Ġdra g
st ead
Ġor ange
Ġmu d
Ġcry ing
Ġblank et
Ġen ough
Ġroll ed
ck et
Ġs oup
Ġsa il
Ġp urp
im i
Ġy es
a le
Ġdr ink
Ġsn ake
se s
Ġb oun
Ġp et
Ġcra b
Ġlaug hing
Ġthr ow
Ġfair y
Ġword s
Ġamaz ing
Ġb ath
i ch
Ġpurp le
Ġ Z
Ġwith out
i re
Ġbott le
ĠB illy
Ġgif t
Ġgra ndma
F in
us ed
on s
Ġp ast
Ġm oney
i ver
f ort
Ġm ail
ĠG ra
Ġbar ked
Ġwag ged
Ġat t
ch ool
Ġmon key
Ġdo ctor
un ch
Ġbr own
Ġmo ved
is es
Ġask s
Ġget ting
Ġclos ed
Ġw he
Ġwelc ome
Ġs u
Ġc andy
Ġs chool
Ġmor ning
Ġown er
g g
Ġl on
Ġm other
Ġhig her
Ġs itting
Ġtre asure
. âĢĿ
Ġsm o
! âĢĿ
Ġdanger ous
Ġlon ely
ĠC h
Ġli ving
Ġapp les
us h
Ġsh op
as ed
Ġstr ange
ve l
Ġshin ing
Ġro ad
e re
Ġcre at
ĠTom my
un a
Ġpa w
Ġr a
e y
Ġsho es
Ġp re
i ble
Ġ -
Ġst re
Ġtal king
al thy
Ġc aught
Ġe gg
o l
Ġpa ss
m e
Ġl ake
Ġrun s
Ġb uck
Ġl etter
Ġw ings
Ġche e
f ish
Ġm ad
Ġf an
ask et
Ġb asket
a ss
Ġdrag on
a pp
Mom my
s et
ck s
Ġst one
Ġthink s
Ġst and
Ġdelic ious
Ġno se
Ġpudd le
Ġto m
ĠB l
ĠM imi
Ġbel ie
Ġfarm er
Ġsa me
Ġyear s
bo ard
Ġt eddy
Ġb at
is k
it ch
Ġm ine
Ġse ar
Ġco at
c hes
ig h
Ġday s
Ġbr ing
Ġgent le
Ġf it
Ġstar t
Ġfin ally
Ġwh ist
Ġcr ay
ig g
Ġsc ream
Ġk ite
Ġp ill
ph ant
ar m
Ġv ill
Ġch o
Ġsing ing
ell a
s w
in ed
Ġtast y
Ġp h
Ġb en
Ġtr ou
Ġshe ll
Ġher self
Ġhop ed
Ġan sw
Ġw ore
Ġsw ings
s y
Ġh or
Ġbel ong
P lease
Ġpus h
Ġbus h
isk ers
Ġcar rot
Ġar ri
aught y
Ġte ach
b ow
ra ct
Ġn aughty
Ġele phant
Ġdro pped
Ġsh ap
i er
Ġco ll
s c
Ġte ac
e my
Ġwo ke
b all
Ġp ile
Ġhid ing
Ġc our
is a
er ry
Ġto uc
Ġm in
Ġpu ppy
' ll
Ġsee m
ll ie
Ġtw ins
am a
Ġl unch
Ġb ow
Ġsa ck
Ġp ers
Ġcour se
Ġche ered
Ġshap es
ĠJ en
Ġgre w
f used
Ġro pe
Ġvill age
ir th
irth day
Ġju ice
i pped
Ġrain bow
Ġsp in
O K
J ack
Ġsh ook
Ġsp oon
Ġben ch
Ġstre et
Ġf ence
Ġcut e
ĠF red
Ġro b
Ġn ut
Ġchee se
Ġpr ob
Ġtouc hed
id ge
co l
Ġj oy
ĠWh iskers
Ġarri ved
Ġse ed
Ġwa r
Ġteac her
Ġc orn
G ood
Ġab le
Ġfore ver
Ġbe ll
Ġfe w
Ġcar ry
Ġmo st
Ġpl ane
ĠBl ue
le m
Ġe as
Ġsound s
ll a
Ġd es
Ġsp o
Ġprob lem
Ġb irthday
Ġp ower
Ġin c
um b
b r
Ġbug s
il k
Ġwonder ful
Ġdoll s
Ġbus y
at o
ir p
e b
Ġw ra
Ġprom ise
ĠTh ank
Ġfeel s
i an
et er
ĠEm ma
Ġbre ad
Fin ally
Ġne ck
Ġm ilk
Ġrob ot
Ġre c
Ġsh y
ount ain
Ġk iss
ir t
Ġhear t
Ġb and
Ġc ave
Ġpo cket
u b
Ġhelp ful
g ly
Ġslow ly
Ġbelie ve
Ġsh ake
ump y
e ared
Ġpat ient
Ġp op
Ġo b
ar p
Ġli ve
Ġstor m
Ġhold ing
Ġu gly
Ġtow ards
Ġup set
Ġt urt
Ġsh r
ad ow
Ġco ver
Ġk itten
o st
ĠR emy
Ġsh arp
Ġdis app
Ġstor ies
Ġs uc
Ġh oney
o ve
ĠB ella
re ad
Ġno ises
ĠL e
Ġc ir
Ġball s
Ġsp ark
Ġgr ay
Ġd ist
Ġdir t
og gy
Ġl ate
Ġdri ver
Ġse at
Ġbuck et
Ġme et
Ġyou ng
Ġamaz ed
Ġturt le
al m
Ġsp id
Ġtreat s
Ġmagic al
u nt
at or
Ġgl ow
Ġsee k
Ġz oom
Ġle m
Ġsand w
fort able
um ber
Ġtri p
Ġm ist
our n
Ġspl as
Ġm ark
Ġj ourn
Ġfo ld
Ġm ach
Ġpu zz
Ġpar t
l ing
Ġhor se
Ġor gan
Ġw ild
Ġprin cess
pp ing
oo se
Ġcook ie
S ure
en s
Ġhug s
ĠM ark
Ġt aking
un g
Ġwhe el
ep end
Ġcl oth
ĠL isa
Ġs ug
Ġin stead
Ġbu bb
Ġstr ing
Ġn et
Ġdro ve
il ing
Ġru de
Ġhug e
Ġco in
Ġstar s
Ġfight ing
ĠJ im
B e
Ġsp icy
Ġl ucky
O f
Ġcra w
He y
Ġb one
Ġin v
ĠGra ndma
or s
n ot
Ġc a
pp er
Ġfor get
u p
Ġd i
a ur
Ġsa l
ĠFin ally
Ġcan not
Ġwhist le
Ġc ard
Ġs ick
Ġp ath
Ġc ou
Ġspid er
Ġw ide
L ila
Ġfo ot
Ġsnow man
Ġli fe
Ġsong s
Ġpill ow
iz e
ul ar
ĠJ ust
L ater
e st
ĠA nn
er t
Ġfix ed
Ġgi ant
op h
ri ll
Ġno d
Ġbo ss
Ġla st
Ġcom es
Ġjo ke
Ġmo on
Ġtast e
d en
Ġmach ine
Ġgr umpy
Ġwa ve
Ġth in
Ġdri ve
Ġcar t
Ġas h
Ġs er
Ġgra b
Ġpe ace
l ower
Ġdad dy
Ġ On
ĠLe o
er y
Ġs el
Ġshe lf
Ġhid den
ere st
Ġs uddenly
Ġwas n
Ġwr ite
Ġland ed
Ġcon fused
Ġr ing
Ġch ange
Ġwor m
Ġint erest
Ġch ased
oo p
Ġfruit s
Ġs our
it y
Ġmy ster
Ġb ark
Ġr ad
Ġsmo oth
ĠC ome
Ġadventure s
Ġv al
Ġste pped
Ġf le
op e
Ġo ven
Ġtake s
Ġmiss ed
Ġsel fish
k in
Ġshe ep
Ġmess y
T o
Ġac ross
Ġ ent
Ġex p
t o
Ġc e
Ġl ater
ell y
Ġ N
if e
Ġstick s
Ġt ie
S t
e ver
ĠL una
Ġb ought
Ġst ep
Ġd rew
Ġte a
pec t
Ġb an
irp y
bo x
? âĢĿ
Ġwas h
Ġl ay
Ġp our
Ġbe ak
o se
Ġj og
Ġgr ate
Ġduck s
Ġsp e
Ġleg s
ug g
Ġf il
ĠB u
Ġem p
m er
Ġhop e
Ġemp ty
Ġsl id
Ġfe ather
Ġsleep y
Ġdr um
am ed
ar s
et h
Ġz oo
Ġp an
Ġph one
Ġgrate ful
Ġf ing
ion s
Ġlem on
le t
ĠC at
Ġcle ver
ĠM olly
Ġsmell y
Ġim ag
Ġspl ash
Ġinterest ing
ĠJ ill
Ġsa ve
Ġch ick
Ġc alm
Ġm ed
Ġwatch ing
S oon
iz zy
iz z
Ġpl ate
Ġ ign
y ard
Ġcloud s
Ġban an
Ġl ine
Ġface s
Ġb a
Ġa ct
Ġli ft
Ġth ough
Ġwo lf
Ġback yard
w el
Ġseem ed
Ġdog s
Ġspr ay
C ome
Ġpr ot
Ġwho le
Ġm ot
Ġfan cy
ĠDad dy
Ġque st
Ġarm s
Ġpuzz le
Ġhe althy
Ġsu pp
w ard
Ġfin ish
er ly
Ġal ong
ll o
Ġrock et
Ġexpl ain
d ge
Ġeas y
Ġje wel
on t
Ġp ract
Ġj elly
ĠCh irpy
Ġt id
Ġf ake
Ġcray ons
Ġwonder ed
Ġm aybe
Ġsc ar
Ġsh ip
Ġnot hing
one st
Ġem b
ig er
Ġp ool
Ġlong er
Ġany one
ĠB e
u ally
ĠJ erry
Ġfr ont
Ġwor king
Ġgive s
ir r
Ġp ack
Ġs uch
ĠB unny
o cked
m ent
Ġboss y
ĠD oggy
Ġtrou ble
Ġsmell ed
Ġsa ved
Ġp in
ra ss
Ġne igh
ar rass
it ing
Ġh onest
Ġa v
ar ge
Ġemb arrass
Ġv an
Ġforg ive
Ġtid y
Ġwe ak
ur se
Ġput s
un k
Ġk ick
Ġsh irt
ĠW ith
Ġm ind
ĠO llie
Ġneigh b
Ġplant s
Ġso l
ĠMom o
Ġgent ly
Ġco zy
or row
m ing
Ġexpl or
s p
Ġmist ake
Ġy og
o c
oom y
Ġpoin ted
Ġl ad
Ġa f
Ġst ood
or k
Ġon to
Ġjump ing
Ġwait ing
Ġprin ce
Ġc ross
Ġlo ck
Ġche er
Ġque en
ĠWh y
ĠM ary
Ġw ing
on es
w e
Ġl arge
Ġlove ly
ul t
Ġs ur
Ġre t
A nd
Ġde er
Ġche w
Ġcou ch
Ġb al
Ġst ret
aught er
er a
ĠThe ir
Ġplace s
ĠM y
Ġlad der
oo f
Ġret urn
ra id
Ġant s
Ġd ish
Ġaf raid
Ġclean ed
Ġtom orrow
Ġbuild ing
Ġsandw ich
Ġpers on
S ally
n ed
Ġpretend ed
Ġboun ce
Ġw ip
ge st
Ġmat ch
Ġri ch
u ce
Ġp izz
Ġg ather
Ġsear ch
Ġbor ing
om an
ĠS omet
Ġte eth
Ġh um
K itty
M y
ac ed
Ġd aughter
Ġw oman
Ġscar f
Ġgo es
ĠTo gether
Ġla w
Ġst ra
Ġswim ming
Ġfur ry
Ġsplas hed
Ġp ri
Ġlove s
Ġtr ue
Ġscream ed
Ġla zy
Ġg en
Ġansw er
Ġn umber
Ġe ag
Ġash amed
Ġpizz a
a w
Ġapp eared
Ġfe ar
Ġnear by
Ġpower ful
Ġfl ag
ĠS t
Ġha ng
v ous
Ġcl own
e k
Ġch ase
Ġmot or
Ġwa nd
ĠT V
Ġru b
Ġsuc cess
Ġcho col
ĠI f
Ġcreat ive
Ġtr ust
Ġwe aring
Ġno isy
Ġmat ter
p a
Ġd ig
Ġhe llo
Ġn er
Ġtoo l
Ġsa f
ĠB ird
ad o
Ġner vous
el p
Ġte st
Ġsm iling
Ġso ld
ic ked
o ppy
os aur
Ġcir cle
m b
Ġm ap
Ġdr ank
Ġcla ss
Ġtri es
Ġchocol ate
ĠP lease
Ġimp ress
Ġkne e
Ġgen er
Ġdin osaur
Ġpol ite
Ġm irr
ĠT iny
ĠBob by
Ġballoon s
Ġgo ld
Ġr are
Ġprot ect
Ġc and
St op
Ġcar ried
ĠG o
ens ive
Ġa p
Ġsh adow
Ġmirr or
ĠD on
Ġba ld
Ġg un
in a
Ġexp ensive
Ġre g
if f
Ġmyster ious
ĠS p
Ġp ump
Ġnot e
Ġher o
Ġmar ch
Ġh ar
ar l
Ġ icy
Ġres pect
Ġwe ird
Ġsn ee
Ġc ri
Ġg ate
Ġso ap
ra g
ut e
iss ors
Ġthe se
Ġpo or
Ġtow el
Ġwh ale
Ġfe et
Ġt ape
Ġd izzy
itt er
Ġgener ous
nd pa
Ġpre s
ĠBen ny
n ic
Ġdis co
H elp
vent ually
Ġpic nic
Ġm ic
Ġle ad
Ġs que
Ġembarrass ed
Ġjourn ey
Ġsug ar
is p
sc ape
Ġbo ot
Ġt ent
Ġpeace ful
Ġf at
ĠB ear
Ġsc issors
Tom my
Ġtast ed
Ġyell ed
Ġt ick
Ġm el
Ġbr ush
Ġdanc ing
n ess
Ġgl ue
Ġh ur
Ġr ough
Ġcl ap
Ġbr idge
ot e
Ġdec or
Ġclos et
Ġcr own
Ġst ir
u al
im p
Ġprin t
ĠSomet imes
ow ed
air s
ĠH ow
um e
Ġc ap
Ġl amp
Ġv ase
Ġsc are
le br
Ġrel ie
l ves
an y
Ġe ld
Ġte le
Ġce lebr
Ġg igg
Ġwh isp
Ġlo g
Ġsc o
Ġbl ow
Ġpain ted
ĠD ucky
Ġp ay
er ries
Ġw is
Ġb erries
Ġmix ed
Ġsp read
Ġwould n
Ġc age
Ġb ake
r ob
get able
Ġm ountain
Ġad m
Ġdraw ing
Ġbec ome
Ġfam ous
Ġbe an
Ġkn ocked
Ġn orm
Ġve getable
as p
Ġk icked
ust r
Ġsh ark
s er
Ġinc red
Ġlo se
Ġnorm al
Ġwra p
c ed
Ġgr oup
Ġth ick
Ġ 3
Ġf ine
Ġgl ass
Ġign or
Ġclo ck
Ġte am
Ġeld erly
Ġcle ar
Ġcorn er
Ġfr ustr
Ġmight y
rob e
Ġc one
Ġincred ible
ĠB r
D ad
ig hed
Ġmom s
Ġbal ance
Ġso ck
Ġsp ace
Ġj am
rag ile
Ġfr ight
Ġbran ches
Ġorgan ized
Ġro ar
p ort
Ġsw ord
al ous
Ġgu ess
ĠM ama
Ġf ool
Ġse ll
Ġfe ed
ĠS ome
Ġwh ich
Ġh orn
Ġpres ent
Ġje alous
Ġy arn
on y
Ġf ragile
Ġb urn
Ġunderst ood
Ġm is
Ġstu bb
Ġt er
Ġfrustr ated
W here
r ay
Ġho se
c ient
Ġsp ent
Ġsho e
Ġt aught
Ġstubb orn
Ġtw ist
Ġcreat ure
Ġche st
Ġspo iled
Ġrelie ved
Ġan cient
i que
Ġwa ke
Ġfi er
Ġpr ay
Ġfier ce
Ġegg s
Ġc ab
Ġter ri
Ġb arn
Ġpump kin
Ġcom fortable
Ġor d
y m
Ġfright ened
or ry
Ġto ug
Ġun ique
Ġme asure
Ġgo at
Ġwag on
Ġun us
Ġbre ath
Ġfool ish
Ġuse ful
Ġexplor ing
d le
Ġstra w
Ġunus ual
Ġd ug
Ġcl ay
Ġdisco ver
Ġtom ato
ĠP e
Ġde ad
Ġfind ing
Ġpol ice
Ġwr ote
Ġcl um
Ġex am
l ace
Ġwa ves
Ġsqu are
Ġhear s
Ġcab in
Ġtell s
Ġneck lace
Ġd ull
Ġclum sy
Ġtoug h
Ġbubb les
Ġno sy
k n
Ġsear ched
To gether
Ġwas hed
Ġbath room
Ġpaw s
bb y
o nd
un n
an ged
Ġbo ard
f ic
kn own
Ġas king
Ġcra zy
Ġthank ful
Ġb itter
Ġsun f
y al
Ġp ir
ber ry
Ġ ind
al k
Ġdif fic
Ġro se
c il
Ġsw an
Ġbl oom
Ġun known
ĠE lla
Ġcover ed
Ġdiffic ult
Ġa dd
Ġpen cil
Ġfing er
Ġha m
Ġh oop
Ġj et
Ġw itch
Ġdr op
M e
Ġ '
Ġchick en
Ġgl oomy
a pped
Ġlo yal
al s
He re
Ġwe althy
c om
l ight
Ġun l
Ġcat s
Ġend ing
Ġg uit
b led
sh ine
Ġdo ve
Ġjoin ed
Ġc her
an ut
Ġmo v
Ġterri ble
Ġyour s
i ant
Ġ U
ĠR ex
Ġsal ad
ĠAnd y
Ġnut s
Ġr at
g round
Ġt iger
Ġpot ato
Ġm ask
x ible
se lves
Ġval ue
Ġch anged
Ġmo ving
Ġexc iting
orm ous
ĠM any
Ġbo dy
ĠT r
Ġto ast
Ġrec ord
er p
Ġz ip
Ġche ap
Ġdis g
Ġguit ar
irst y
Ġknow ing
Ġadvent ur
E very
Ġyour self
Ġen ormous
Ġhair y
Ġsho ot
ĠBr own
Ġbor ed
Ġpe pper
Ġrem ind
or y
l and
Ġac orn
Ġadventur ous
Ġsun shine
Ġsmall er
Ġst uff
Ġhat s
Ġsol ve
Ġfle xible
Ġco st
rill iant
Ġkn ife
Ġperf orm
Ġsnack s
Ġnod s
Ġsh ore
ĠJim my
Ġb rilliant
Ġth irsty
Ġdelic ate
Ġfr own
Ġdisg ust
Ġcoll ect
Ġst ri
Ġseed s
Ġcount ed
Ġas leep
Ġbanan a
re en
Ġmail box
in ess
Ġd ough
Ġtri ck
Ġneighb or
ung le
Ġhe al
l ive
Wh o
Ġst age
id ent
Ġmark et
Ġcu be
Ġst at
Ġj ungle
Ġsque e
J im
mb re
Ġexplain ed
at es
Ġu mbre
Ġdisgust ing
f ted
Ġla b
Ġjo lly
Ġfl ash
u nd
Ġfr idge
in al
p id
il t
Ġcr ane
c orn
Ġs uit
Ġr h
id dle
Ġsunf lower
Ġt imes
Ġcat erp
Ġcaterp ill
ĠA l
Ġrel ax
Ġsh iver
Ġf our
Ġis land
ig inal
Ġh arm
ic t
ĠWh ile
y ing
Ġstu pid
Ġmed ic
ĠIn stead
Ġcom b
Ġg oose
Ġc ro
ed ient
ĠW ill
Ġsto ve
I f
A re
M um
Ġind epend
m ost
Ġspr ing
Ġg em
Ġbat ter
Ġs ighed
Ġvegetable s
Ġst ones
p es
Ġsh ine
H ow
Ġmedic ine
Ġd epend
Ġr ug
ĠYou r
Ġcare less
Ġor iginal
Ġst amp
Ġg ar
In side
Ġc ries
g u
Ġcarrot s
Ġsc r
Ġsuccess ful
Ġsa uce
Ġje ep
Ġpop corn
Ġme al
Ġob edient
Ġal most
Ġm iddle
Ġmag n
Ġstu dy
Ġindepend ent
Ġfear ful
Ġj ack
m et
ink y
S orry
ĠSam my
Ġe scape
Ġcaterpill ar
Ġser ious
Ġpe anut
Ġbed room
The re
Ġeag er
ak en
Ġget s
Ġpar rot
Ġstat ue
Ġhel met
Ġpe bb
Ġ No
Ġf ountain
Ġan g
Ġra ven
Ġpast a
Ġumbre lla
Ġcomp et
Ġjack et
Ġbelong ed
Ġde st
Ġfil thy
Ġdes ign
Ġbor row
Ġc am
er able
Ġhouse s
Ġpri ze
Ġh ay
Ġbra ce
Ġstand ing
Ġmis erable
Ġr aced
Ġt aken
ag es
Ġfor k
Ġcray on
Ġpain ting
i o
Ġtri ang
Ġimpress ive
Ġch oose
Ġf ig
Ġt ied
ia ble
Ġspot ted
Ġli fted
Ġsl ipped
our s
Ġt ank
Ġthought ful
Ġdepend able
Ġste al
Ġgar age
en ny
Ġbu ilt
Ġmu sh
Ġ er
ip e
Ġmo le
Ġcraw led
Ġsc ale
Ġboat s
Ġp ant
Ġp ian
Ġham mer
Ġbott om
l ph
Ġcheer ful
Ġus ing
Ġsmo ke
Ġpick s
Ġmo der
Ġshow s
ber ries
r n
Ġpian o
Ġmagn et
d ile
co dile
Ġhurt s
in ary
Ġre f
Ġcra ck
Ġen g
Ġa unt
Ġmel on
Ġwa ff
Ġmoder n
Ġdo lph
unn el
c ream
p ack
Ġt unnel
o in
Ġar row
Ġrel iable
Ġho pping
Ġmush room
Tim my
Ġj ug
Ġsqu ash
Ġg um
Ġs ink
Ġmov ie
Ġt ax
Ġfl ute
Ġbe et
Ġle an
The ir
i v
Ġpop ular
ic op
icop ter
Ġcry st
Ġon es
Ġs il
Ġcompet it
Ġhel icopter
as er
Ġneed s
ip op
ll ipop
Ġcro codile
Ġli z
M olly
Ġp ress
Ġtrou bled
Ġpig e
Ġlo cked
Ġtri cks
Ġlo llipop
Ġplay ful
Ġhum ble
Ġtax i
Ġkiss ed
Ġl ow
a ppy
com fortable
am ond
Ġr id
Ġun comfortable
h ost
Ġwa nder
at ch
Ġang el
ed y
c les
Ġto rn
Ġgra ce
Ġan x
Ġwra pped
Ġmu ff
Ġtw ig
Ġpant s
Ġdisapp oin
ĠS n
Ġhelp s
Ġdi amond
Ġcam era
at ter
ot o
Ġanx ious
Ġg host
Ġte ars
Ġru ined
c ident
il ty
ĠJen ny
Ġqu ar
a ff
ĠE ven
Ġf is
op l
Ġbel t
er opl
Ġen v
Ġgu ilty
Ġb ull
Ġa eropl
Ġhelp less
Ġhapp iness
Ġliz ard
Ġboy s
c ut
ex t
Ġc ere
Ġwalk s
ce an
Ġpass ed
Ġme ant
Ġo cean
Ġfl uffy
Ġw ire
Ġn ail
Ġbrace let
Ġde af
z ed
Ġstret ch
Ġca ct
Ġcand le
t t
Ġbeet le
Ġm op
Ġharm less
ump et
Ġord inary
Ġansw ered
Ġc op
Ġcoll ar
Ġbe es
Ġt ire
Ġsh ape
Ġquar rel
Ġrad io
Ġflash light
Ġcryst al
Ġhard er
Ġpour ed
Ġtr umpet
M ama
Ġeng ine
Ġpers ist
Ġh unt
Ġto oth
Ġcere al
Ġinv ited
Ġcomp ut
Ġt ag
Ġoff ice
Ġm elt
Ġsp ill
Ġch arm
co a
Ġl it
Ġsco ot
Ġc omet
Ġtriang le
ie f
Ġm ug
Ġre p
u be
Ġyog urt
Ġsp end
Ġcomp ass
Ġac cident
Ġsh ade
he tt
ag hett
aghett i
Ġdisappoin ted
Ġli cked
Ġcact us
Ġpa le
Ġc ush
Ġfig ure
J ane
Ġgi ving
Ġreg ular
Ġav oc
Ġpr o
Ġshe et
Ġwhisp ered
az e
ut h
ell ig
Ġcre ate
Ġbar ber
Ġint ellig
Ġp ipe
Ġro de
Ġr oof
Ġth read
it her
Ġli br
Ġlo ad
Ġv i
Ġgif ted
c col
Ġpract iced
Ġdel ight
ccol i
Ġhar sh
Ġd ust
Ġp ow
as ses
ĠTr ue
Ġb icy
az z
Ġsp aghetti
Ġcompass ion
Ġsa iled
ur key
u bby
Ġfor ward
Ġpersist ent
Ġspe ed
Ġm itten
Ġco coa
Ġen vel
Ġquest ions
Ġcomput er
Ġc oo
Ġfeather s
h ip
Ġgl ove
g ing
Bob o
Ġri ce
Ġshr imp
Ġdes k
Ġst ream
Ġin se
Ġpige on
Ġcharm ing
Ġear s
Ġcar p
lc an
Ġra ft
Ġenv ious
Ġkn ot
Ġt urkey
Ġstrong er
om es
Ġco ins
Ġt ap
lcan o
we et
Ġtra p
umb ers
Ġaeropl ane
Ġtr unk
Ġwhe at
Ġbox es
Ġch ubby
Ġcarp et
Ġrest less
Ġintellig ent
Ġt ube
Ġsp un
Ġdream s
Ġfriends hip
ul if
ol in
Ġha lf
Ġloo p
Ġcraw l
Ġbro ccoli
Ġon ion
Ġdel iver
an ger
Ġac ce
Ġv ide
Ġvo lcano
Ġs le
ĠJ ake
Ġtra ck
Ġb ri
Ġca ulif
Ġv ine
y e
Ġtick et
Ġth ief
ess ie
cy cle
Ġloud er
Ġinse ct
Ġn umbers
as ing
Ġy aw
Ġhair cut
it al
Ġsleep ing
Ġm ill
Ġe ventually
Ġal ert
Ġexc ite
Ġpebb le
Ġho sp
Ġatt ract
Ġplan et
ĠTo day
Ġun iver
is ted
ul u
Ġer aser
Ġhosp ital
Ġreturn ed
Ġdest ro
Ġgrace ful
Ġhappen ing
ac he
ĠO K
Ġdec ide
Ġlearn ing
Ġsc reen
rew ork
Ġnice ly
ĠEm ily
Ġle op
Ġcaulif lower
Ġcompetit ive
Ġpo em
Ġcelebr ate
Ġc urt
Ġpe ach
Ġsold ier
Ġsa us
Ġpar ade
at ient
Ġattract ive
Ġcurt ain
Ġb ase
Ġdolph in
Ġvi olin
Ġway s
G o
at s
Ġtra vel
t en
Ġro d
Ġignor ant
ul b
Ġwheel s
Ġy ach
Ġsc atter
Ġd eter
Ġcompassion ate
Ġbar rel
Ġenvel ope
Ġbubb le
Ġl ying
Ġfi rework
Ġsor t
Ġquest ion
z zy
ĠP ipp
Ġscoot er
Ġdeter m
Ġr ag
Ġth u
Ġbicy cle
el ery
Ġneed le
ĠF r
Ġju dge
Ġb ulb
Ġleop ard
Ġte m
Ġyach t
Ġp ony
Ġcri cket
Ġh omes
Ġor der
Ġad or
ter n
Ġtr uth
Ġh ook
Sara h
d om
Ġru bbed
et e
ig ator
Ġbus hes
Ġun cle
Ġcush ion
Ġsp ell
Ġgr own
Ġcoo ked
Ġador able
Ġch alk
Ġso ar
Ġp urse
Ġsk in
Ġthem selves
Ġimp atient
Ġc elery
Ġtr ay
Ġshell s
Ġpen gu
Ġsn iff
Ġpr un
Ġwall s
Ġse al
Ġlive ly
Ġc ase
Ġall igator
Ġdist ant
Ġrad ish
Ġsay ing
Ġspe ak
Ġmotor cycle
Ġme at
Ġs end
ill a
Ġspin ning
Ġfor th
Ġcount ing
Ġent h
Ġboun ced
Ġch ain
Ġ ed
Ġclean ing
eb ra
Ġfil m
Ġsle pt
Ġp it
Ġsur f
Ġmar ry
us ia
Ġwall et
Ġenth usia
Ġmet al
ur b
eb ook
Ġb in
Ġwe ek
Ġnot ebook
Ġsk ip
Ġwip ed
is ion
ch air
Ġbig gest
Ġimp ro
Ġavoc ado
Ġbeh ave
Ġdestro y
v ator
Ġband age
Ġlaugh s
Ġste ak
Ġpat tern
ĠS h
Ġpo st
Ġele vator
ĠBu zz
us ie
Ġd ive
Ġsh ut
Ġsk ipped
Ġunl ock
Ġdi ary
de st
j ect
Ġz ebra
Ġbag s
at ing
Ġarm chair
ra ge
ag ed
Ġdist urb
Ġo y
Ġpo le
Ġshow ing
Ġcl ub
Ġgather ed
Ġn urse
b ul
Ġear th
Ġen c
Ġstr anger
Ġswe ater
Ġjelly fish
Ġsc rew
Ġtem p
ĠP oppy
Ġcom pl
Ġmix er
G ive
Ġsk ull
Ġl ime
Ġb ump
bul ance
Ġam bulance
n am
Ġf ather
G ra
Ġjourn al
Ġloud ly
it o
Ġfold er
Ġsh ield
ĠL ulu
ĠB et
Ġlibr ary
Ġbutton s
Ġplay ground
Ġtruck s
ĠP eter
Ġin k
Ġlight s
Ġt ummy
Ġpoin ting
Ġc ity
Ġdecor ate
Ġst ation
B illy
ir it
Ġpre p
Ġfall s
qu ito
ĠP olly
Ġf u
ĠF o
ent ion
n ger
ĠBird y
l ies
Ġher b
Ġor nam
Ġornam ent
Ġmo dest
Ġgu ard
Ġmo s
Ġknow s
Ġc ord
Ġpol ish
Ġmar ble
ob y
Ġmos quito
umb led
Ġsal t
Ġatt ic
Ġwhen ever
Ġve st
ct op
Ġres c
Ġy et
Ġp le
Ġdisapp eared
ce ed
Ġstraw berry
Ġk ay
ĠM um
Ġbrother s
Ġit ch
Ġpir ate
Ġfoot ball
Ġspl it
ke le
Ġon ce
kele ton
Ġh ipp
Ġa ut
Ġl ed
ur ing
ctop us
Ġdri ving
Ġc able
Ġsupp ort
Ġcall ing
Ġcup board
ak y
us hed
Ġwis hes
Ġcomp let
Ġtri pped
Ġro ot
Ġkay ak
Ġo ctopus
ob ile
Ġa dded
Ġed ge
Ġm ild
st ic
Ġdeterm ined
Ġsuc ceed
?" .
Ġread ing
om obile
Ġco al
W ell
g l
ut es
p ar
Ġsug gest
Ġst ack
Ġthu nder
Ġkind ness
Ġaut omobile
Ġcompl ain
Ġenthusia stic
Ġsnee ze
Ġcart oon
Ġyog a
Ġgr owl
ht ub
Ġfle a
l a
Ġme adow
Ġdraw er
Ġbat htub
Ġri bb
oph one
Ġha ll
Ġgo lf
Ġmean s
Ġs keleton
Ġm ath
ĠL ittle
Ġve il
Ġhunt er
Ġg or
Ġfl ame
Ġpo ke
Ġvide o
Ġche ss
Ġtr oph
Ġcup s
Ġglow ing
Ġmat t
Ġoy ster
w ork
Ġpen ny
Ġsp ear
Ġit self
Ġdraw ings
Ġhipp o
Ġrep air
Ġsw itch
gl asses
Ġsun glasses
Ġtele ph
Ġcost ume
Ġd ess
Ġz ipp
, âĢĿ
Ġre pe
Ġmuff in
Ġar g
Ġpast ry
Ġp un
Ġroll ing
Ġmin utes
Ġmake up
Ġpa cked
ir on
ri c
ĠPe ople
Ġwaff le
c ase
Ġhand le
Ġpe ar
Ġm aze
Ġteleph one
Ġp ine
a it
Ġg ear
Ġhe dge
Ġmatt ress
Ġpack age
a ving
ĠM iss
Ġsho cked
in es
Ġtroph y
Ġpow der
Ġkn ight
Ġc ob
Ġmiss ile
Ġfr ame
Ġman aged
Ġenc ou
Ġw ife
Ġo k
Ġse par
w eb
Ġst airs
Ġr ot
Ġc amp
r ophone
ur ch
Ġmag az
Ġstr ugg
Ġcol our
Ġgra pes
Jim my
t ime
Ġf ile
he ad
ĠT ina
Ġbasket ball
B ye
o ld
p er
R e
Ġcob web
ĠT weet
S ee
Ġper m
Ġw ool
Ġmic rophone
es day
Ġey e
Ġle ash
ĠD an
Ġg asp
ie w
ke ep
Ġwe ep
Ġbark ing
at ure
Ġsaf ely
Ġte ar
Ġv iew
f fe
Ġslid es
Ġstep s
ist ol
ffe e
Ġbanan as
Ġst aff
Ġsp irit
Ġt ask
Ġgigg led
Ġho c
Ġhoc key
Ġve nd
Ġth ose
J ill
Ġgor illa
Ġcool er
ĠR ose
w as
c ing
Ġear ly
Ġmar ched
ro sc
Ġmin t
ĠL ook
was her
Ġfl our
Ġhot el
h ic
Ġsail or
Ġdess ert
Ġph oto
rosc ope
Ġve hic
il ot
Ġof ten
Ġch urch
ĠP ete
Ġcook ing
Ġrem ain
Ġf ive
Ġsaus age
ot ter
Ġt en
Ġtool s
Ġmed al
Ġe ither
Ġfire man
ch or
Ġgra ndpa
Ġ otter
Ġbase ball
Ġp istol
Ġpretend ing
Ġdish washer
Ġre ver
Ġorgan ize
Ġpe e
Ġvend or
Ġkn ock
Ġs ight
Ġg rill
Ġtemp le
Ġbatter y
Ġthin king
Ġopen s
Ġ ow
Ġreal ised
Ġ iron
Ġla ser
Ġsn e
Ġo il
Ġsand box
Ġpat ch
Ġh ours
Ġr ise
Ġwh ip
' d
ctor y
ĠG ive
Ġan chor
Ġtra sh
en se
Ġsh ort
n ey
ĠBet ty
Ġrh in
Ġfa ctory
se um
Ġm ay
Ġwar d
at ely
Ġcard board
ug ged
A l
Ġlot ion
Ġmess age
Ġval u
Ġward robe
Ġc ell
Ġmu seum
ap ers
Ġu r
in ation
Ġhang ing
uc et
ĠS unny
ail able
ĠZ oom
Ġh ive
e er
Ġtow ers
keep er
Ġblack board
Ġme m
Ġexcite ment
Ġco ffee
Ġp ilot
F luffy
re ady
Ġnap kin
Ġpengu in
r on
Ġche ck
Ġre ward
l oo
Ġqu it
ĠPipp in
Ġcan e
Ġpick ing
pl ace
ĠSn ow
az or
Ġ ig
Ġfa ucet
Ġpass port
ĠR ob
Ġst umbled
Ġdream ed
ĠB essie
Ġig loo
ar oo
ang aroo
Ġfree z
Ġju icy
Ġall owed
pl ay
Ġhold s
Ġal ready
Ġav ailable
Ġset t
Ġbat he
Ġtorn ado
im ney
Ġfing ers
ht ray
Ġha nger
Ġnew sp
Ġs ize
Ġla und
Ġl end
Ġch imney
Ġlaund ry
Ġo ak
E m
Ġfis her
Ġk angaroo
Ġm en
ĠEvery where
Ġtell ing
Ġno vel
bo dy
Ġm ummy
Ġp al
Ġmu le
Ġcher ries
Ġnot ice
Ġpract ice
Ġspill ed
Ġre ind
Ġcomplet e
Ġenjoy ing
Ġmic roscope
ar ian
Ġg ain
amp oo
Ġsu b
Ġfire place
Ġimag ine
and a
Ġdis play
Jo e
oc er
ĠZ ip
Ġfast est
Ġmagaz ine
Ġhur ry
Ġcabin et
Ġshr ink
Ġas htray
W ait
Ġcow s
ĠSp ike
g en
Ġpal ace
Ġimpro ve
ac hes
Ġr ake
Ġreind eer
Ġfall ing
ocer os
Ġsk irt
ur ed
Ġdiscover ed
Ġstar ed
Ġro ared
a id
Ġsil ver
Ġt ub
Ġtra il
I s
Ġmin er
c ome
Ġb ill
Ġf og
ict ion
Ġa x
st airs
Ġh ut
ile t
Ġhapp ier
Ġtall er
iction ary
Ġo ats
Ġfisher man
Ġob ject
Ġp or
v ision
Ġvalu able
Ġsh ampoo
Ġho les
Ġoff ered
Ġboot s
Ġrhin oceros
Ġnam es
Ġto ilet
Ġclimb ing
Ġbl in
v ice
O w
Ġstret ched
ie st
Ġzipp er
Ġlisten ing
Ġs ym
Ġbath robe
ale nd
Ġjewel ry
ĠHe re
Ġjoke s
Ġtele vision
Ġpro v
Ġc alend
Ġstop s
Ġax e
Ġjump s
Ġfu el
c u
Ġspark ly
Ġperf ume
ĠS usie
Ġbu ry
M ummy
bo l
l u
Ġpress ed
ĠK im
ree k
Ġre ce
f a
Ġne at
ĠT oby
Ġc reek
Ġpo pped
Ġop era
Ġcalend ar
Ġsn ap
Ġatt ach
Ġgasp ed
Ġsym bol
Ġt una
M r
Ġp apers
Ġun pack
Ġres ist
ar ry
Ġd ictionary
Ġsub way
Ġletter s
Ġfreez er
Ġcho se
Ġpin ch
z ag
Ġspo ke
Ġany way
Ġsu per
Ġhelp er
Ġpor ch
af fe
Ġbike s
Ġli e
ĠM ar
ic hes
Ġcom fort
Ġtight ly
Ġsh aking
Ġbook case
Ġs on
Ġr azor
aur ant
ĠA re
Ġsandw iches
ig zag
Ġwe igh
Ġagain st
Ġstick ers
Ġrest aurant
Ġnewsp aper
Ġbl ouse
Ġvehic le
Ġswing ing
Ġp ed
Ġdis ag
Ġn ature
Ġsquirrel s
Ġbelong s
iv al
Ġswam p
Ġbutterf lies
Ġg ym
d el
Ġinc lu
Ġgrow ing
Ġbuck le
om ed
Ġstir red
Ġmust ache
Ġbill board
x y
Ġbe ep
t e
Ġal arm
Ġli p
Ġfe st
Ġlight ning
L ittle
Ġhun g
ut or
Ġdist ance
og n
Ġc ards
Ġob ser
Ġag ree
Ġex t
Ġte ase
Ġrec ogn
Ġrub ber
i k
Ġhat e
f ast
e f
O uch
Ġdoes n
Ġmusic ian
Ġad vice
Ġbee f
Ġser ve
asp oon
Ġsweet ie
Ġmo del
l ter
Ġblue berries
Ġcri b
Ġso fa
Ġcir cles
Ġbreak fast
Ġt utor
as is
Ġbooks he
Ġgir affe
st ri
Ġfest ival
Ġsepar ate
Ġshe lter
Ġg as
Ġair port
Ġo live
Ġr ail
Ġbookshe lf
Ġfrog s
Ġte aspoon
Ġrever se
Ġj unk
Ġrid ing
Ġple ased
Ġdra in
ĠMr s
Ġwip e
Ġo asis
Ġso il
Ġa head
Ġresc ue
Ġle aving
um mer
Ġpain ter
Ġch ance
Ġsquee ze
Ġkn ob
Ġpo ked
ĠT eddy
Ġpee ked
Ġl umber
Ġtrain s
Ġext ra
Ġsl ipp
Ġqu iz
Ġre fused
re s
rm omet
Ġp age
Ġru les
Ġhappen s
Ġin s
Ġsound ed
Ġpoin t
Ġwin ter
Ġdanc er
Ġbird c
ĠGra ndpa
Ġdisapp ear
rmomet er
ĠDo lly
Ġwas te
Ġwe ather
Ġli c
Ġbirdc age
Ġthe ater
Ġre ef
D aisy
Ġcarry ing
Ġinv ite
if orm
Ġgo al
Ġo stri
Ġsw ung
Ġun iform
Ġtr ade
Ġcl iff
i ence
Ġlaw n
ĠP andy
ol a
Ġlean ed
ang u
Ġacce pt
Ġadm ire
Ġfor t
Ġaccident ally
Ġpast el
bb les
Ġst om
Ġl angu
Ġtw ir
Ġs uff
Ġp anda
r iger
Ġb et
riger ator
Ġpe ek
re nder
Ġblin ked
Ġstar ts
n a
Ġref rigerator
Ġany where
!" .
Ġimag ined
Ġdream ing
Ġrem ove
n ight
ĠL ee
Ġshow er
ĠC o
Ġce iling
Ġclass room
Ġcar ing
i um
Ġgra nd
Ġmiss ing
a ked
Ġlic ense
Ġst able
Ġthe rmometer
Ġmonkey s
ast ic
Ġwar ned
Ġs ummer
ĠW here
Ġab ove
Ġbri ck
ec ted
Ġc udd
Ġproblem s
am ber
Ġch asing
Ġap ron
Ġlab el
Ġs ent
it ure
urn iture
Ġlaw y
Ġl id
ugg age
m ed
Ġrespect ful
Ġf urniture
Ġfrown ed
Ġzoom ed
Ġp ages
Ġpre vent
Ġb ent
Ġl uggage
Ġmistake s
Ġsun set
Ġostri ch
is on
Ġsuggest ed
Ġwindow s
ation s
Ġj ail
l ow
Ġw ine
Ġribb on
Ġold er
Ġshout s
Ġgra pe
ĠC l
Ġw igg
uc ture
Ġstr ucture
Ġspo il
e or
Ġfix ing
Ġch amber
Ġlion s
Ġdel ay
Ġfind s
Ġhand ed
Ġsearch ing
Ġun ite
D id
Ġf ought
Ġlawy er
Ġbright ly
Ġpa ir
Ġmeet ing
Ġcho ice
Ġsurpr ises
C h
Ġar t
ĠE llie
ĠU n
Ġfav our
eter in
ad ium
eterin arian
Ġst adium
Ġproud ly
ik i
Ġv eterinarian
v et
ro d
Ġchair s
Ġsl ip
ĠS pe
Ġsad ly
ĠB ow
Ġinc re
ĠC arl
Ġpudd les
Ġb erry
Ġint rod
Ġran ch
ve al
ĠB oun
Ġarg ue
Ġ V
Ġadm ired
Ġc ur
Ġfavour ite
You r
Ġin f
Ġexcited ly
Ġr ac
Ġgrab s
m end
Ġste am
th ank
Ġhum an
eor ge
s ity
ĠHe l
Ġpus hing
Ġsa ving
ĠR ed
Ġre veal
om mend
Ġy ield
all ey
ol og
Ġm all
Ġremind ed
Ġrec ommend
Ġle ak
Ġsur render
Ġhar b
Ġapp l
cu ss
a ul
Ġwe ap
Ġreg ret
Ġput ting
Ġv alley
Ġminer al
Ġeven ing
el come
Ġforg ave
Ġmat ches
Ġsnee zed
Ġa w
Ġpu p
Ġr ushed
ec ause
Ġsp ade
Ġap olog
Ġpl ates
Ġdis cuss
Ġprep are
Ġharb or
Ġign ore
Ġcount ry
ĠB ig
Ġlangu age
ĠBu zzy
Ġpull s
Ġpl astic
Ġsupp ly
Ġflo at
Ġsniff ed
ĠJ azz
Ġrepl ace
Ġme as
Ġsho vel
Ġra ise
ĠN ext
ĠB ill
Ġf re
Ġcar ed
Ġso cks
Ġstri p
Ġdoor s
Ġmyster y
Ġli ves
Ġrest ore
Ġstick er
Ġs udden
ar i
Ġkind s
Ġslipp ery
er o
ĠO w
Ġplay er
Ġpan ic
Ġhop ing
ric ane
id ay
Ġsh one
le x
her o
Ġbe g
ĠB inky
Ġsuper hero
ĠM ike
Ġdelight ed
Ġg ro
Y ay
au d
ch an
Ġchick ens
Ġshould er
Ġrain ed
Ġcolour ful
Ġbre at
Ġcla w
ĠAl ice
ĠBu bbles
Y uck
Ġsoft ly
r ise
Ġp ort
Gra ndma
Ġho l
ic er
Ġhol iday
M ary
Ġ âĢ
Ġbark s
as on
Ġthrow ing
Ġplan es
Ġbe nd
ĠFred dy
Ġshake s
Ġend ed
Ġinf ant
Ġshiver ing
Ġkne el
Ġsun rise
Ġpus hes
ĠO live
Ġthank s
Ġfre sh
Ġsuff er
Ġpoin ts
im ed
w ards
Ġt ip
ĠP at
ĠSpe edy
Ġfree ze
Ġkeep ing
ĠW ould
Ġco pper
Ġgigg le
Ġsmell s
Ġde ar
Ġent er
Ġprov ide
c ast
chan ic
Ġdis hes
ĠE nd
co nd
N ext
Ġun h
Ġappl aud
Ġhead s
Ġhur ricane
Ġcher ry
Ġm ass
Ġth umb
Ġme owed
Ġmen u
Ġse cond
Ġbright er
in ce
Ġsand cast
Ġme chanic
Ġw re
Ġspray ed
Ġe vent
Ġlet ting
Ġweap on
Ġlaug ht
Ġ x
Ġlaught er
Ġcla pping
Ġfeel ings
W ill
ick y
Ġsplas hing
em ent
ĠO r
ac ked
Ġcast les
ĠF l
c er
Ġsc ore
app ing
Ġuniver se
Ġn avy
Ġd em
Ġstick y
oph ie
Ġr ow
Ġroom s
Ġfl ies
ig i
Ġunh appy
ĠD ave
Ġgre edy
Ġd are
Ġal ive
Ġbreak s
Ġen er
Ġcou rage
Ġinv it
Re ady
Ġrepe at
Ġdem and
L isa
Ġtrust ed
Ġsome where
arl ie
Ġprun e
b les
Ġwre ck
Ġsk ill
Ġ Y
Ġexam ine
Ġpar ts
y ear
A ll
Ġeat en
o e
er c
en ry
Ġm ention
Ġrain ing
ĠHel p
B uddy
Ġthrow s
Ġjog ged
que st
Ġstar ting
Ġr ush
Em ma
Ġpo ison
Ġpir ates
he art
Ġv ac
Ġcont ent
ĠK iki
Ġs igh
Ġfl apped
Ġdrop s
Ġch irp
Ġsp ort
Q u
Ġspark led
ĠZ oomy
Ġgi ven
A nn
Ġstre ng
Ġste el
Ġbump ed
Ġyaw ned
Ġstu d
Ġre quest
Ġsco ld
Ġmy self
Ġstreng th
Ġshr ugged
M ark
Ġcoat s
Ġpun ish
Ġe qu
Ġsn ugg
Ġuniver sity
Ġpa id
Ġpig s
Ġscr atch
Ġto e
Ġex erc
Ġtra cks
ĠJohn ny
Ġup stairs
Ġpray ed
Ġcross ed
Ġsquee zed
Ġfl ood
Ġimpress ed
Ġboun cing
ĠR u
Al ice
Ġrabbit s
g es
Ġbad ly
. .
Ġle ather
Ġwar n
Ġex pect
Ġnew s
Ġt ide
ĠT ed
Ġmin ute
Ġbear s
Ġclaw s
Ġbu zz
Ġsweet heart
ĠS m
y th
Ġn ation
S h
yth m
Ġhis t
Ġvac ation
Ġhe at
Ġstraw berries
Ġobser ve
Ġexplor ed
Ġsett le
Ġsandcast le
Ġyaw n
Ġhist ory
m are
ĠL illy
Dad dy
ĠL ola
ĠM ummy
ĠS que
i ally
in king
Ġbelie ved
Ġhor ses
ĠH oppy
Ġche cked
ĠM andy
Ġto ur
Ġnet work
Ġchee k
ĠU nder
Ġoff er
Ġeas ily
Ġpl aced
s pec
Ġspot s
Ġsnow ball
we en
m en
Ġener gy
ĠB ee
Ġimag ination
Ġblue berry
ott en
Ġbet ween
spec ially
ĠG igi
iz es
Ġd aisy
Ġwa ving
ree ze
re at
Ġv room
Ġso ak
Ġsaf ari
Ġrh ythm
Ġmass age
Ġstom ach
Ġb aking
qu ake
Ġnight mare
Ġins isted
Ġblow ing
Ġent ered
Be fore
Ġst air
Ġp alm
Ġbeaut y
Ġtw isted
Ġb other
Ġwr iting
Ġsc oop
Ġprun es
Ġbra in
Ġ ing
ip ment
Ġpo ppy
Ġhill s
n oon
Ġafter noon
Ġe specially
Ġequ ipment
he st
Ġs ir
Ġp ad
ĠS ee
Ġing red
Ġcall s
ĠFo x
Ġingred ient
Ġearth quake
Ġignor ed
ĠSnow y
Ġburn ed
Ġno body
m ble
Ġst y
ap a
Ġse w
Ġt ug
is ty
Ġhear ts
xy gen
Ġle ar
Ġlear nt
Ġlemon ade
J enny
Ġincre ase
ill ie
Ġg az
Ġback pack
Ġmail man
F red
Ġwhist led
Ġped al
ĠS k
Ġshop keeper
ff ic
Ġperm it
Ġtre mble
Ġy ucky
ang es
Ġmove s
Ġintrod uce
Ġlem ons
Ġcra sh
Ġbean s
Ġflo ated
ed n
edn esday
itten s
W elcome
Ġplan ned
Ġstri ke
Ġtra ffic
Ġinclu de
Ġsl ap
ĠL ucky
Ġrac ing
res ses
Ġwis dom
Ġp ur
Ġwag s
ĠFin ny
la imed
Ġl uck
ĠG eorge
Ġfollow ing
Ġpri ce
ec ting
Ġm ama
Ġp itch
Ġbel ow
ĠE lly
ĠH ave
L e
Ġwe ight
Ġexc laimed
h ouse
Ġbu ried
Ġcom f
Ġfollow s
Ġrecogn ize
Ġingredient s
Ġf urt
t ain
Ġcand les
M imi
Ġmar bles
ri age
und ay
em ember
er ation
ĠW ednesday
Ġap art
Ġgrowl ed
uc t
ĠA lex
ore s
Ġcon f
ĠS u
Ġhop es
Ġteach ing
Ġfold ed
Ġclose ly
ĠFin n
ĠWh o
Ġhe el
ĠS unday
Ġencou rage
ĠOw l
Ġz igzag
ĠP aul
Ġpull ing
Ġd igg
Ġboun cy
Ġfurt her
Ġchew ed
Ġdigg ing
Ġwin ning
W ith
W oof
Ġd resses
Ġim age
re c
c ery
Ġshout ing
Ġgro cery
Ġtw isty
Ġpeanut s
Ġpuzz les
bb ing
ĠD og
l ook
Ġscr at
Ġch ores
Ġwhisp er
ĠI s
Ġsp ike
ĠFr oggy
Ġc ape
Ġsn ail
Ġacorn s
Ġworm s
h ood
Ġdeep er
Ġur ge
if i
Ġexp er
ĠWhen ever
ĠT illy
ĠSque aky
ĠGra ce
Ġplan ted
Ġatt ention
ec ture
Ġexerc ise
Ġcu b
Ġop eration
Ġunder ground
ĠDan ny
Ġh on
Ġag re
Every one
Ġqu ite
Ġcreature s
Ġs imp
Ġstrugg le
or al
ĠM ittens
dd y
Ġbl ood
Ġl ecture
Ġwas hing
Ġhurt ing
Ġgif ts
Ġvan ished
Ġdress ed
Ġinvit ation
Ġsol ved
Ġli cks
ĠSh aring
Ġsnugg led
i ppy
Ġb le
Ġmar riage
Ġquiet ly
g ie
Ġwar ning
Ġj azz
Ġbreat he
rec i
Ġelephant s
Ġs izes
Ġd ried
Ġfall en
Ġland scape
or ies
Ġspr ink
Ġneighb our
Ġm ice
u esday
Ġapp reci
ĠS ophie
ĠâĢ ĵ
ĠJoe y
Ġeag erly
Ġsail ing
ĠCo co
Ġpa used
ip s
Ġcount er
ĠG ood
ĠBoun ce
ĠP enny
Ġwor th
look ing
ĠR ock
Ġo xygen
B ecause
Ġre lease
Ġshin ed
N ot
p ted
Ġre aches
Ġbal an
ĠZ ara
is ses
Ġo h
Ġk isses
Ġsty le
Ġbri cks
Ġplay s
Ġgl o
ĠT uesday
Ġide as
s ed
Ġin st
Ġw ob
Ġfirework s
B ella
igg ly
uc ked
Ġsee ing
Ġfl ap
op s
Ġacce pted
r ight
ĠP ip
To day
Ġbl ink
m m
Ġtre mb
ĠR os
The se
Ġmu ddy
Ġmem ory
Ġmar ried
Ġtomato es
Ġex it
Ġwag ging
Ġfa sh
ĠAnn ie
R emy
ĠCh arlie
Ġwander ed
un ately
ipp ing
Ġglo ves
Ġcap tain
Ġpillow s
Ġrece ive
Ġres p
ĠP inky
ra ged
Ġd uring
ĠEvery thing
et ch
Ġwe b
Ġpet als
Ġwater ed
Ġs i
ĠE ventually
i ved
Ġman age
Ġbr ings
Ġpin ched
Ġcake s
Ġvan ish
Ġfash ion
ĠBlue y
Ġprin ter
Ġdestroy ed
Ġtreasure s
n ce
Ġall ow
up s
Ġhad n
Ġwor se
ĠF ifi
S urpr
Ġve l
Ġhit s
Ġb ur
x u
Ġvel vet
Ġapp ear
Ġdisag ree
d o
Ġcatch ing
Ġscatter ed
ĠR o
Ġmem ories
Ġsor ts
ĠP apa
Ġher s
Ġscold ed
Ġpe ars
Ġor anges
Ġsign s
Ġb ones
Ġran g
Ġsn apped
Ġsit s
Ġseat s
u xu
Ġgaz ed
Ġra ised
B l
Ġz ipped
Ġp ies
ĠMar ia
Ġprin ts
Ġsh ot
Ġslid ing
ĠGo d
Ġfr o
Ġeas ier
ss ible
Ġskill s
Ġclimb s
Ġtwir led
c cer
Ġblanket s
Ġforg otten
Ġba ked
e ster
Y um
Ġdiffere nce
ester day
Ġl uxu
or ted
Ġgold en
is ing
Ġk itty
ĠT w
Ġcut ting
Ġse ason
ag gie
Ġnow here
Ġcr ow
a h
an ny
Ġso ccer
Ġd ared
Ġbit es
ĠH arry
ĠH enry
Ġl ung
Ġcelebr ated
ch oo
ch ie
Ġstra ight
Ġunl ocked
st ers
Ġsor ting
Ġcoll ected
Ġble ed
ap ed
d ing
Ġwelc omed
Ġvis ited
Ġspoon s
Ġour s
Ġst itch
Ġjog ging
Surpr ise
med i
Ġem er
ĠSp ark
medi ately
Ġis n
Ġto ng
Ġtra ve
Ġwin ner
um ble
Ġs ince
Ġru in
Ġpret t
O k
M oral
Ġatt ached
ĠT ony
Ġweep ing
Ġmarch ing
Ġluxu ry
Ġsimp le
ĠE ach
Ġshould n
Ġguess ed
Ġz ero
Ġcre ated
Ġstuff ed
Ġpet s
ct ion
Ġwa ist
Ġfam il
Ġur ged
Ġbow ed
Ġsell ing
Ġflo ating
r r
ĠSm ith
Ġby e
ĠK ing
Ġv ict
Ġking dom
Ġolive s
Ġkick ing
ĠW iggly
Ġpun ished
ĠL iz
ĠB aby
s it
Ġto es
Ġgr ant
Ġmus cles
Ġjewel s
ĠRos ie
Ġbed s
Ġmel ted
Good bye
Ġsl ice
Ġgr in
Ġunderstand ing
Ġcollect ion
Ġto re
Ġmeas ured
ak er
Ġcra s
i ers
Ġtra pped
omed ay
Ġl ined
' ve
Ġac ted
fort unately
Ġencou raged
v a
ĠS andy
Ġrece ived
Ġwaff les
ĠBe fore
ĠW ally
Ġwe st
Ġme ow
ent s
Ġpattern s
r in
in o
Ġbr us
e ath
Ġmouth s
k ins
Ġb ang
r ing
Me ow
ĠK ate
Ġpe aches
Ġb reeze
ad ed
un e
Ġprin ted
Ġsold iers
Ġs omeday
Ġpotato es
Ġpup il
um es
ĠM illie
Ġdrink s
Ġshe d
Ġexper ience
ĠT una
Ġpresent s
Ġfire f
ĠRu by
Ġsur round
Ġn one
Ġvoice s
os ed
e ep
Ġdr inking
ĠUn cle
is hing
Ġrelax ed
Ġvict ory
c us
Ġbre aking
Ġpaint s
e ve
Ġhur ried
iss ion
Ġtw ink
Ġtong ue
Ġcost umes
Ġfl at
Ġmention ed
Ġbeg ged
Ġte asing
Ġwhist ling
Ġf etch
Ġperm ission
Ġs ip
Ġdisag reed
Ġpe arl
ake s
Ġstr o
ve st
ĠThe se
Ġe sc
Ġapp ro
Ġsk ipping
Ġfis hing
ĠM ay
Le o
Ġhig hest
Ġp ra
Ġwat ches
Ġsor ted
Ġring ing
sh ip
Ġto night
ĠB o
Ġop in
Ġlet s
ic ing
Ġ Qu
Ġperfect ly
Ġshadow s
Ġim mediately
Ġherb s
Ġwarm th
Ġsp it
Ġremain ed
t her
ĠIt s
Bob by
w alk
irr ing
J en
Ġsne ak
Ġs ix
Ġlip s
Ġkneel ed
Bl ue
ĠC he
Ġcont est
ut ter
Ġcartoon s
Ġside walk
Ġcol ours
Ġstamp s
Ġag o
H a
ĠT oto
ĠB oo
ĠFo llow
Ġe ast
Ġhead ed
o ved
" ,
Ġstr ang
Ġf ed
Ġlady b
Ġsupp osed
Ġli ck
Ġroot s
Ġcr unch
Ġmix ing
Ġwork s
M andy
Ġdecor ations
Ġkn own
Ġmelt ing
Ġemer gen
ĠA b
Ġrest ed
Ġl ines
Ġl ily
Ġinst r
ĠSu zy
ĠJ ul
Ġla id
ĠG r
Ġcon es
Ġsucceed ed
Ġwigg le
et y
s ing
Ġsh ock
Ġset ting
ĠS low
Ġstud ied
Ġstrang ers
ĠRock y
Re ally
Ġtwig s
Ġbr id
Ġtheir s
ĠD r
Ġgirl s
b oo
!" ,
Ġscream s
Ġland s
Ġord ered
Ġst irring
Ġmoment s
Ġfield s
Ġal right
And y
Ġsteal ing
d ed
Ġr ul
Ġbrave ly
ĠB oth
av id
Ġm ister
! '
Ġin vest
Ġscrat ched
Ġplay time
Ġri pped
Ġinvest ig
Ġt ucked
Ġrest ing
Ġburn ing
Sam my
is hes
ĠCh icky
ĠCl ara
Ġbrid ges
Ġoff icer
p lease
B ird
ab ies
Ġsett led
Ġa chie
Ġmat ched
Ġte x
Ġtex ture
P eter
H appy
Ġturn ing
Ġwait s
ĠSk y
or ed
Ġtremb ling
ist en
Ġnail s
at ie
ĠSome one
Ġmuff ins
id s
ĠJ ames
Ġesc aped
Ġpile s
Ġinvestig ate
Ġbro om
os ity
Ġladyb ug
Ġso re
ĠPe pper
Ġadm ir
Ġappreci ate
Ġth reat
Ġb abies
Ġsil ence
Ġsister s
Ġare a
id es
Ġdad s
Ġemergen cy
Ġansw ers
Ġpu pp
Ġkey s
Ġchew ing
Ġsl apped
Ġw iz
Ġimport ance
B oo
Ġser ved
ĠH op
Ġsaf ety
iz ing
B u
W ould
Ġspark le
Ġtouch ing
ĠL ater
Ġso ared
ig ail
Ġs ings
Ġhe n
all en
E lla
b ers
ant ly
Mom o
ĠD ino
Ġkeep s
Ġamaz ement
Ġch allen
Ġhe sit
Ġtw in
Ġreveal ed
an na
ache l
Ġd ire
Ġit em
Ġso aked
z ing
Ġwr it
Ġfood s
Ġdinosaur s
Ġrid es
Ġrecord ed
Ġtick le
Ġin ch
ĠZ igzag
ĠM e
Ġwiz ard
Ġv et
Ġtrip s
Ġglow ed
ĠFr og
ĠA n
M mm
Ġh i
Ġbe amed
Ġqu ack
Ġcur led
Ġha ted
Ġw ink
Ġsho pping
Ġeat s
E ventually
ĠB ug
Ġpra ised
Ġwood en
Ġbring ing
Ġmitten s
Ġstudy ing
Ġgu y
Ġbrus hes
Ġspace ship
Ġg ust
Ġcraw ling
ĠSomet hing
C at
Ġrul er
Ġfl av
Ġdown stairs
Ġshoot ing
Ġn apping
Ġtast es
Ġmark s
Ġsprink les
Ġcudd led
Ġd ot
he llo
Ġf ut
pl ash
a les
a ved
Ġfut ure
Ġmon sters
Ġcoll ecting
Ġmeas uring
ĠH appy
' .
Ġfamil ies
ĠF irst
ĠO ut
ĠM o
Ġth rill
Ġo at
J ake
ir ts
Ġres ult
ĠR abbit
Ġappro ached
Ġcrunch y
a ct
U n
Ġrem em
Ġbleed ing
Ġremem bers
Ġn icer
Ġbe at
Ġsne aky
Ġdisturb ed
Ġlead er
Ġsc aring
O r
h ind
Ġpe el
Em ily
ĠH ope
Ġfire men
ĠSt ar
Ġneighbor hood
Ġgre y
ĠN ot
Ġmot ion
Ġno on
Ġpo ssible
S omet
Ġapolog ized
Ġwe ighed
u es
ĠD id
Ġticket s
C l
Ġnap s
Ġloo se
Ġpr ide
Ġyou th
Ġswim s
p ed
Ġstr ings
Ġrecogn ized
Ġsi ren
Ġpo king
f ied
ĠH o
c ious
h a
el vet
Ġtri cked
Ġwonder s
Ġgain ed
Ġwant ing
Ġcras hed
Ġo be
Ġsees aw
Ġwork er
unn ies
l s
om ing
Ġdraw s
Ġscoop ed
. '
Ġzoom ing
Ġopin ion
Ġyell ing
Ġprep ared
Ġgrin ned
ĠSlow ly
Ġa we
Ġdog gy
Ġpoem s
Ġact ing
ĠBe ep
Ġhapp iest
Ġche f
Ġsne aked
Ġresp ons
Ġe ff
ĠAl ways
ĠL izzy
Ġb unnies
Ġown ed
Ġany time
Ġstr uck
Ġped als
Ġkn elt
oy s
O llie
en a
Ġsecret s
Ġp ause
Ġdecor ated
Ġhorn s
Ġagre ement
ĠS qu
id ed
Ġfr ost
Ġtall est
Ġobe y
R emember
riend s
og o
ĠSt op
H ave
Ġdecid es
Ġbeh aved
Ġt ugged
Ġs ides
Ġw oof
Ġsl im
z en
Ġgood night
Ġkeep er
Ġspark ling
Ġchirp ed
Ġpre cious
m other
i en
l ier
T r
Ġrepe ated
Ġclap s
ind y
Ġcont ain
aff es
Ġsnowball s
u d
r s
ĠR ay
Ġour selves
all ow
Ġgir affes
Ġbalan cing
Ġkind ly
Ġspend ing
Ġwrit es
ay s
pp ers
ĠL ike
om as
Ġpr op
Ġhis sed
F irst
Ġfro zen
Ġfrost ing
Ġeff ort
Ġbuzz ing
Ġstrugg led
o h
Ġadmir ing
Ġre le
ig gy
Ġsweet ies
ĠSt eve
ĠV elvet
Ġslim y
Ġbr ushed
Ġbloom ed
S usie
Ġpol ished
ĠA m
ar th
ĠZ oe
an ted
Ġb oo
Ġcomf y
Ġstay ing
Ġru bbing
D ucky
Ġrock ing
Ġpocket s
Ġthrill ed
Ġbe side
Ġcomp le
ĠA unt
ĠM aggie
A h
Ġe ight
is dom
ur ry
Ġmach ines
Ġear lier
Ġy esterday
Ġseem s
Ġr ust
ĠK eep
S p
Ġtrave led
Ġfold ing
Ġbo om
Ġcra cked
it ies
Ġhug ging
Ġrad ishes
ĠSt itch
Ġlo ving
Ġopen ing
Ġcir cus
Ġcuri osity
Ġsurround ed
Ġspray ing
Ġdemand ed
ĠR achel
Ġpaint ings
am ie
ĠG reen
Ġrem oved
Ġg aze
Ġhon k
Ġpebb les
Ġhard ly
Ġzoo keeper
Ġcat ches
ed ding
Ġst ing
Ġstri pes
Ġpow ers
Ġload ed
ĠPipp a
Somet imes
Ġpot s
Ġsplas hes
Ġpet ted
Ġmatch ing
ĠD avid
Thank s
Ġto ss
Ġbe lly
Ġst are
Y ummy
i bb
Ġwhat ever
Ġapolog ize
Ġro cked
Ġcomf orted
ĠB ree
Ġdec ision
Ġribb ons
ĠBird ie
ĠJ oy
er n
Ġstrugg ling
Ġex pected
Ġdes er
Ġste ep
w h
Ġprot ected
Ġneighb ors
Ġsmile y
Ġchase s
D uring
Ġgr anted
Ġcr umb
ĠM at
Ġpur red
Ġdi ving
Ġsad ness
Wh iskers
Ġorgan izing
low ers
Ġeag le
Ġhero es
Ġd ipped
Ġsun light
Ġli ed
Ġpastel s
ĠFr ank
E x
Ġroad s
Ġsaf er
Ġscr u
ĠM illy
Ġarg ued
Ġgo als
ĠW ater
Ġdisco very
ĠAb igail
Ġpe ered
Ġvill ag
R o
ĠBoun cy
u se
an a
l oe
Ġt im
Ġdrag ons
Ġbuild ings
Ġbucket s
Ġpart ies
Ġbe ard
Ġw edding
R ex
Ġfl utter
Ġplanet s
Ġan n
ĠRob by
Ġpol ishing
Ġfa sc
ir a
Ġrele ased
Ġcrab s
ĠG ogo
ĠW atch
Ġtail s
ĠCh r
Ġsaus ages
Ġar gu
ĠJ u
Ġcont ro
Ġbott les
Ġwigg led
Ġte ased
u ke
Ġargu ing
Ġsl ed
Ġdrag ged
Ġpad d
ĠC ar
Ġro aring
Ġcle aring
Ġsh irts
Ġmov ies
Ġgather ing
Ġair pl
Ġw id
joy ed
Ġteac hes
Ġspid ers
Ġl imes
ĠR emember
ĠD are
Ġover joyed
Ġact ually
Ġsigh s
Ġcontin ue
Ġcudd le
Ġso aring
Ġsmall est
Ġdri ves
ĠJ ess
Ġri p
Ġspark les
Ġsit u
Ġcub es
Ġref res
Ġtal ent
ĠO lly
Ġchallen ge
Ġgrand mother
ĠS plash
Ġpour ing
um m
Ġpretend s
Ġfasc in
Ġcut s
Ġb ank
Ġpe ppers
Ġquarrel ing
Ġman e
Ġshiver ed
Ġdust y
le y
Ġwonder ing
Ġvillag ers
John ny
Ġstretch ing
n joy
i b
Ġweek s
Ġwhere ver
Ġdark er
T iny
j am
s ses
Ġ X
Ġr ings
Ġon wards
Ġun ited
A choo
ĠK atie
Ġbe ad
ĠBe ing
ĠEvery day
Ġprett iest
Ġc aut
Ġreal ize
Ġcomp any
Ġpengu ins
F r
anna h
L una
ĠSp ring
Ġbed time
ĠW isdom
Ġcomple ted
ĠLe ave
âĢĿ .
Ġknight s
Ġflag s
ĠB ecause
ĠJ e
Ġplay room
ĠP rin
Ġact ions
ĠZ ero
Ġlearn s
Ġgot ten
Ġpat ience
d am
ind a
Ġshr ug
Ġkit es
Ġrespons ible
Ġfe ars
Ġdest ination
Ġwire s
Ġrep ly
Ġd am
Ġwr ist
aw s
Ġpack ing
Ġfa ult
Ġmountain s
Ġapplaud ed
Ġscru bbed
Ġm a
ĠA va
Ġcre pt
U h
ĠE arth
Ġsat is
Ġth ird
Ġph ot
Ġpencil s
Ġwin s
Ġstick ing
Ġb aker
Ġvisit ing
Ġw ound
Ġpe as
Ġuse s
Ġremind er
Ġcontro l
Gra ndpa
as hed
Ġjo king
Ġaw ake
Ġinstr uct
Ġstar ing
ĠP ut
Ġheal ed
Ġh itting
ĠF ish
Ġscream ing
Ġbeg in
R ob
uck ily
ĠF riends
ĠM oo
ic orn
Ġhelmet s
ent y
Ġun icorn
l er
se ek
Ġtowel s
S illy
Ġch ips
ic a
Ġcre ation
ĠL ou
M ar
Ġwas ted
b ie
ĠBe hind
Ġmask s
la ire
Ġforg i
Ġitem s
Ġfiref ight
Ġout do
Ġlollipop s
W atch
Ġhe av
Ġgun s
Ġd ied
ĠH ippy
Ġse as
Ġgl itter
udd les
Ġarri ve
Ġwere n
Ġsto le
Ġsc ales
Ġper ched
Ġac com
Ġlog s
Ġachie ve
d ie
Ġpract icing
in ing
Ġwho se
St ay
Ġpump kins
Ġinstruct ions
Ġsw oop
Ġbatter ies
Ġcand ies
Ġagre es
Ġpro ject
Ġsnake s
Ġchirp ing
Ben ny
Ġshe lves
Ġprot ecting
Ġex act
Ġpar ked
ĠC ra
Ġpatient ly
Ġact iv
Ġshould ers
Ġvide os
Ġblow s
F o
he e
Ġprom ises
g o
Ġd ent
us an
n ers
ue st
Ġexam ined
Ġairpl ane
jam as
D oggy
Ġro ses
D ave
Ġaccom pl
Ġtask s
ĠHo ot
P oppy
ĠB op
B unny
Ġbead s
Ġbowl s
Ġcrumb s
z es
P ete
Ġlisten s
ĠL ove
ĠCat ty
ĠBrown ie
ĠO l
Ġb unch
Ġc ough
Ġdolph ins
Ġg uest
c akes
Ġrequest ed
Ġrem ote
Ġimpro ved
ant a
Ġbra nd
Ġreach ing
ay la
Ġal ien
ĠB ye
ir m
ĠJ an
ĠS un
Ġcop y
Ġcheer ing
Ġphot os
ĠChe w
ĠJul ie
B ad
ĠBl ink
T ime
Ġcan s
ĠC uddles
Ġtim er
ĠB y
Ġrepl aced
Ġwork ers
ath y
M ike
Ġst ern
ĠE njoy
G eorge
Ġne ither
ast er
Ġpass ing
Ġmis ses
Ġcurtain s
Ġconf l
Ch irpy
Ġrainbow s
Ġrub s
Ġroll s
uct antly
Ġpat ted
il o
Ġpa jamas
Ġoutdo ors
es ome
L ola
d ies
Ġcomplain ing
ĠSqu irrel
R un
Ġpupp et
Ġclose s
Ġben eath
ĠPrin cess
Ġla p
Ġdrum s
Ġt une
ĠB eth
ĠM ouse
Ġfill ing
M iss
ang led
Ġref use
ĠS orry
Ġswe at
Ġfa ced
.. .
Ġse ven
Ġbalan ced
Ġresc ued
b l
n eath
Ġqu acked
ĠA bby
P aul
ist le
Ġaw esome
Ġ 1
Ġmiss ion
ĠHow ever
Ġguy s
Ġcaut ious
Ġconfl ict
Ġc ause
Ġv ent
Ġobser ved
Ġintrod uc
ĠTh omas
Ġpast ries
n ie
ĠO ur
Ġdoctor s
Ġexact ly
Ġru le
Ġbec oming
Ġm es
Ġpolice man
u ly
Ġrocket s
y ou
Ġ Yes
ĠD ot
Ġfair ies
l ay
Ġp out
A n
Ġins ist
Ġbloom ing
Ġtra ctor
Ġfar ther
ĠS ad
av i
O ops
G reat
Ġremember ing
Ġinclu ded
Ġcur ly
F ine
Z oom
Ġteam work
z ie
Ġfascin ated
Ġsl am
Ġwob bled
Ġtr uly
Ġhelp ers
H enry
Ġsight s
Ġpad dle
Ġf irm
Ġst umble
ĠJ illy
ac ob
Ġca used
Ġpray er
Ġsp ong
Ġrecord ing
ke lly
a is
Ġstar fish
Ġtr aded
Ġsupp lies
Ġth ro
Ġpoin ty
Ġinv iting
Ġsitu ation
e ah
g ers
Ġevery day
Ġneighbour hood
Ġornament s
ĠA lly
ink le
Ġval ued
Ġadd ing
S ome
Ġrel uctantly
Ġdot s
Ġstay s
Ġb are
Ġtable s
Ġprett ier
Ġdes ert
Ġsnow men
Ġste ady
Ġminer als
ara way
Ġth orn
o dy
Ġa st
Ġf araway
Ġgl asses
ĠG et
ĠFo xy
ĠW elcome
Ġswoop ed
ĠS ure
Ġun f
ĠTw o
Ġfork s
Ġus ually
Ġus ual
P olly
Ġd ar
ĠJ amie
Ġwin ked
Ġsnee zing
Ġsol ut
Ġload ing
Ġspong e
ĠQu ick
Ġinsect s
Ġ Once
Ġpan s
D og
Ġso bbed
ĠS anta
J ames
Ġgrowl ing
s m
ar ter
Ġthro at
Ġno ses
ĠCh loe
ĠJo sh
ĠD izzy
Ġscar ves
Ġconf ident
ĠW ant
Ġyour selves
ag ull
Ġhome work
Jo ey
ĠSt ay
Ġsuperhero es
Ġsm arter
T ina
Ġwind y
Ġlibr arian
ĠK ids
Ġgem s
D ays
or a
Ġunder neath
Ġkick s
Ġknow led
Ġitch y
Ġjacket s
Ġknowled ge
ĠS kelly
ĠF or
Ġsurf ace
Ġunt ie
Ġcom m
ĠD uck
Ġprince sses
.. ."
Th ose
H old
e ed
id o
Y eah
c oon
Ġsquare s
ĠH enny
Ġgigg ling
Ġwarn ings
i ar
Ġread s
v in
O ur
Ġch oo
s on
Ġyou nger
T oby
Ġclown s
ĠM ix
Ġro pes
D anny
Ġbit ing
Ġcrow d
ĠUn fortunately
p ite
Tr ue
Ġse agull
Ġpadd led
Ġwear s
Ġdeliver ed
Ġon ions
ĠM on
Ġtwir l
Ġbuzz ed
Ġcomplain ed
Ġb umpy
Ġst em
Mr s
E w
Ġpig gy
Ġdire ction
ou ch
Ġdi ved
ĠAnn e
Ro ar
Ġt angled
Ġstart led
ul ts
Ġlean ing
ĠA nt
bb ie
ĠJ ones
Ġbad ge
ĠP o
Ġun p
Gra ce
Ann ie
Ġde al
th ough
Ġv owed
Ġnap kins
an es
Ġr isk
Ġtick led
Ġcover s
Ġp ec
Sh h
Ġyell s
Ġsatis fied
in t
Ġknock s
Ġrefres hed
t uce
ĠS c
cu se
M aggie
Ġc ous
Ġarrow s
ĠWh istle
P e
Ġwip es
Ġspe aking
Ġlet tuce
Ġguess ing
ĠQu ack
Un fortunately
Ġri pe
ĠS usan
ĠDo do
Ġhid es
Ġchoice s
ĠRo ver
Ġsign ed
Bu zz
Ġslow er
Ġseek er
Ġintroduc ed
Ġsing er
Ġcreat ing
Ġc ent
Ġfro ze
ĠMat t
ugg les
Ġjo ked
Ġsque al
Ġexplore rs
Ġtoast er
f it
Ġav o
S ophie
ang ing
Ġpray ing
Ġwr itten
Ġdiscover ing
ĠD ara
Ġprov ided
Ġref le
ĠL ion
Ex cuse
Ġmushroom s
ĠP aws
Ġkne es
Ġpay ing
ĠJe ff
Ġhid er
ence s
ĠAs h
Ġwander ing
Ch arlie
Ġimag es
Ġst ung
ĠW ink
Ġmagnet s
Ġbare ly
Ġbeh aving
Ġtip to
?" ,
Ġmar ked
br ush
rr r
ĠD ee
Ġrest ored
Ġlead ing
ll ed
Ġch uck
Ġn ine
ad os
Ġgre et
T eddy
Ġbra very
Ġgear s
ĠSn uggles
k y
Ġcompetit ion
e al
Ġout fit
ol ine
Ġwis hing
Ġprop erly
Ġvent ured
a a
t le
Ġch at
Ġdance s
Ġmus cle
Ġpen s
Ġsal ty
am b
ĠBet sy
Ġran ger
ĠZ iggy
Ġdeser ve
Ġhow ever
se qu
Ġmatter s
Ġdark ness
Ġbur st
ĠF u
Ġrain y
Ġcobweb s
Ġruin ing
Ġchef s
Ġb ak
Ġcon sequ
Ġblock ing
ust ed
it ely
st y
Ġsc ur
Ġv ines
Ġfa b
ab el
Ġfab ric
Ġent ire
Ġbase ment
Ġle ast
Ġperform ed
ĠBug gy
S n
Ġscrat ches
Ġheav ier
ĠC laire
Ġmin ts
Ġavoc ados
Ġtwir ling
How ever
ĠL inda
r ink
f l
Ġlo sing
Ġscur ried
ĠJen na
Ġsunf lowers
Ġrain co
Ġsword s
T weet
Ġcl ick
ĠL aser
ag ic
Ġjob s
Ġsil ent
Ġfl ames
Ġnecklace s
ĠL uke
A lex
Ġrelie f
ĠGr umpy
J erry
Ġsn at
Ġrot ting
Ġsew ed
l en
L isten
Ġtrick y
Fo llow
Ġlight er
oph ia
Ġbow s
ĠSk ip
Ġex ha
Ġsolut ion
Ġconsequ ences
ĠL ena
Ġst ain
Ġtire s
Be ep
Ġunp acked
A b
Ġpart ic
r ance
Ġrace s
Ġp ins
Ġbump s
Ġwrap s
Ġw ow
Ġb acked
Ġdecor ating
ais ies
c her
Ġdent ist
Ġneed les
Ġpur r
Ġcautious ly
Ġlift ing
izz ie
ĠP r
Ġaccompl ish
Ġd aisies
Ġtriang les
ep t
Ġhesit ated
Ġann oy
ĠTh ose
Ġgrowl s
Ġcrack ers
o ke
Ġstom ped
Ġc ott
Ġgra bbing
Ġbo dies
Ġfig ured
Ġm ater
ĠT ree
Ġbuy ing
ĠF ido
ĠR olly
Ġmater ial
ĠA dam
Ġswan s
Ġt ies
Ġg ri
ver s
Ġgrow s
Ġsweet s
ĠGood bye
Ġown ers
Ġcheek s
Ġflav or
ĠC athy
B ig
ĠE l
Ġsuffer ing
v room
Ġfa ct
ĠJ essie
Ġgroup s
b ly
Ġfore head
H arry
Ġlung s
Ġre pa
Ġinterest ed
Ġbak ery
L illy
ĠM ilo
Ġf reed
it ches
ĠNot hing
Ġchuck led
T w
F or
Ġsw ept
Ġcon n
? '
Ġthu d
Ġexha usted
R u
Ġt apped
Ġtwink ling
Ġne ct
ro sty
Ġnect ar
ell e
Ġfe ast
Ġdar ling
ind r
ĠM ad
Ġwor ries
Ġun s
Ġtunnel s
Ġfu zzy
Ġre ason
ĠTr ust
Ġrepa ired
ĠB all
ĠCo pper
Ġactiv ities
le ts
Ġpec ked
ĠH annah
ĠT ry
Ġent rance
ĠL isten
Ġme als
Ġra indr
Ġcomplet ely
Ġpartic ular
Ġma iled
ct ions
Ġnest s
Ġwait er
Ġcudd ly
Ġs ense
ĠN ana
Ġcolor ed
ark y
Ġle ap
b and
Ġpl enty
st ep
Ġpee king
ĠC ara
Ġslam med
n o
Ġplay ers
ĠB irthday
Ġbu dge
Ġmon th
Ġ Q
Ġsc ra
Ġforget s
Ġd en
Ġhand ful
ĠOl iver
Ġm er
o ssible
Ġgen ie
ĠChr ist
Ġst ool
igg ie
ĠP up
Ġtalk s
Ġfeed ing
Ġpassport s
Ġfilm s
ĠSu zie
Ġbath s
Ġimp ossible
Ġdeterm ination
M ay
Ġprin ting
bo at
Ġdesign ed
Ġbu ses
Ġo pp
le phant
ue en
Ġbar s
Ġsuit case
Ġcount s
Ġsto len
Ġspread ing
ĠSn ap
Ġspike s
Ġste er
Ġwip ing
Ġl amb
et ty
ĠR ain
Ġhon ked
W hee
n ies
Ġcow b
Ġsepar ated
bl ings
Ġsi blings
Ġhop s
Ġch op
Ġfire s
Ġsew ing
ĠTw inkle
Ġfe ver
Ġtwink le
Ġt y
Ġcamp ing
ĠM ira
Ġl ower
Ġch anging
y es
ret ch
Ġbeh avi
ĠBl oom
m as
Ġli qu
Ġcelebr ation
b ut
Ġdoll house
Ġsqueal ed
S unny
Ġback ward
Ġag e
Ġsnat ched
Ġc ash
h o
Ġtw ice
Ġs way
le e
it ched
Ġcelebr ating
ĠPe anut
Ġac he
Ġshr inking
Ġk ings
we ed
ri ous
R ose
Ġshop s
Ġkitten s
c ope
ĠJ acob
ĠG ina
au ra
Ġh us
Ġtouc hes
ĠJess ica
air y
Ġpan cakes
Ġavo id
Ġsp at
ĠF rosty
r ig
h og
ĠN ina
Ġpath s
S andy
ĠH old
ck y
ive s
Ġr otten
Ġcalm ed
Ġdro pping
Ġsea weed
P ipp
ile s
ĠJ on
Ġtwist ing
Ġstro ked
ĠM el
Ġunt ied
M illie
ll en
Ġplay house
n e
Ġstud ents
Ġpupp ies
c l
ĠSo f
h i
Ġscrew s
Ġast ron
ĠR e
Ġsome body
ig ning
Ġliqu id
am my
Ġsqu ish
Ġwake s
ĠW oof
Ġbrace lets
Ġastron aut
im mer
are n
Ġthr own
Ġloop s
ĠO ther
L uckily
Ġpl ain
Ġwra pping
Ġtr amp
Ġplan ning
Ġa imed
Ġsk unk
Ġpen nies
Ġsh oo
D an
Ġdanc ers
Ġlift s
Ġspark s
Ġfiref ly
p en
Ġpo ster
y an
Ġc ust
end y
ĠChrist mas
Ġreward ed
Ġobject s
Ġdire ctions
ing o
us ing
Ġrefle ction
Ġhus band
T ake
âĢ Ķ
ri ver
Ġcl ues
u ppy
Ġlead s
Ġincre ased
Ġbl ocked
Ġr ising
Ġdo d
Ġcous in
K ate
ĠWith out
Ġforget ting
ĠY esterday
rig ued
Ġcust om
u de
Ġbegin ning
Ġtramp oline
Ġstore keeper
Ġpout ed
Ġzebra s
Ġa ff
Ġhedge hog
Ġborrow ed
ĠâĢ ĺ
ĠRo llie
Ġsnow fl
Ġcountry side
J ump
Ġmes mer
Ġvehic les
ĠJ ay
Ġinstr um
P at
ĠM ic
ĠK ayla
ĠU p
Ġfrown ing
iv ity
U nder
Ġmark er
y ond
Ġbe yond
Ġpres ses
ĠQ ueen
ĠOn ly
Ġdam age
i very
ĠT ara
ĠB iggie
ie ce
Ġfar t
j o
Ġheal th
Ġn ibb
Ġwhisp ers
Ġslip s
Ġswims uit
ĠJul ia
Ġfl apping
Ġwarm er
arm er
Ġtipto ed
Ġregret ted
Z ip
itt ed
Ġlay ing
ĠRob o
Ġy elp
ad es
ĠF ire
Ġevery body
Ġgl ued
Ġrain s
Ġcre ations
Ġhear ing
Ġsw ir
Ġcold er
iver sity
a el
ĠE lephant
Ġshap ed
Ġfin s
Ġstreet s
O ut
Ġcush ions
Ġrust y
Ġsa n
Ġfart hest
Ġcreat ivity
ĠMike y
Ġsa le
an s
Al ways
C o
Ġstrong est
Ġfit s
ĠSpark y
ibb it
Ġbell s
Ġdoll ars
Ġe arn
i am
ĠL arry
ĠM oon
ang le
ĠCh irp
Ġlend ing
ee se
Ġcash ier
M illy
Ġinclu ding
ĠR ich
Ġsniff s
Ġrainco at
Ġsan k
Ġsto pping
Ġtremb led
Ġsour ce
it i
im on
ĠMiss y
Ġind eed
Ġwob bly
ter s
Ġguest s
Ġsing le
Ġrecommend ed
Ġwe e
Ġspell s
Ġaccomplish ment
Ġbel ts
Ġsurpr ising
Ġend s
Ġhope ful
Ġseas ons
ĠT ake
ĠSnow man
B ear
ĠE ls
Ġplan s
ich ael
Ġencou rag
Ġsupp orted
st ick
ill ed
Ġsuff ered
Ġart ist
Ġperform ance
N ina
e et
Ġslow ed
B ill
Ġg ross
Ġflav ors
id ing
Ġsp ins
ert ain
ch o
Ġlabel s
Qu ack
Ġdel ivery
Ġraindr ops
u ing
ara c
Ġrac coon
Ġforgi ving
t he
ĠW oo
ob ody
Ġpour s
il ity
Ġstand s
Ġturt les
Ġvan illa
u ess
Ġbe am
Ġrec ipe
Ġt ying
ĠS w
Ġg eese
Ġwill ing
Ġdraw n
Ġrob ber
V room
Ġwe pt
ĠB ones
Ġch arac
Ġcorn ers
Ġpop s
ĠS ophia
el ia
Ġque ens
Ġd ie
Ġsail boat
Ġgri p
Ġdriver s
it ude
Ġm oo
Ġhall way
Ġimag ining
Ġsecond s
ĠFu zzy
M ine
Ġprep aring
Ġwid ened
Ġad ult
ĠSp irit
Ġc oop
Ġgro cer
Ġtalent ed
ĠBe aky
ĠI zzy
ĠP am
Ġsail ors
umm ies
ll ing
Ġso fter
Ġas ide
Ġwater ing
Ġknot s
Ġsend ing
L ulu
Ġt ipped
Ġuns ure
Ġtree house
Ġhor iz
ĠL izzie
Ġnot es
Ġe cho
ig ers
Ġachie ved
Ġhoriz on
Ġsque ak
Ġdeliver ing
Ġhot ter
ĠSt ella
Ġple asure
Cl ara
Ġpupil s
Ġbur row
E llie
Ġangel s
Ġcurious ly
Ġy um
Ġblin king
ĠJ une
Ġd et
Ġtw eet
ĠSt retch
Ġsymbol s
w k
ĠC indy
Ġpass en
ĠRu dy
Ġt ummies
Ġt iss
Ġpige ons
Ġfigure s
o ey
umb ling
Ġband ages
Ġc oup
ĠDo ctor
Ġrobot s
ĠRob ert
al ph
Ġtoss ed
Ġh our
Ġback wards
Mar ia
B aby
Ġro ars
Ġmer ma
u zz
Ġr ather
at ur
c ited
ĠP lay
ĠCra b
M oo
ight ing
Do lly
Ġgrocer ies
Ġzipp ing
P ut
V ery
Ġun w
p rin
Ġam ong
Ġ icing
Ġbl own
Ġr umble
Ġafter wards
!âĢĿ .
ipp er
Ġscrew d
ĠT ia
ĠT iti
Ġg lee
Ġsp ed
Ġpr ove
us hing
Ġd ip
Ġover come
Ru by
Qu ick
Ġsurf board
Ġshovel s
ĠTo ot
Ġslice s
Ġm erry
Ġm ate
Ġwob ble
J ul
ĠT urt
ĠA bbie
Ġhead ing
Ġdisturb ing
Ġsw all
Ġrever sed
Ġfirefight ers
Ġswall owed
Ġch ip
S u
ed s
Ġsc ored
Ġfl ipped
ĠJ ump
Fr ank
Ġsquee zing
ust y
Ġwa king
at y
Ġint rigued
S ad
L ike
Ġm aker
B etty
ĠB arky
Ġp uff
aw n
Ġha wk
Ġencourag ing
Ġa ud
ĠE x
on ies
Ġch os
ĠR on
Ġchos en
he w
ĠA ng
ĠF armer
Ġcoup le
Ġdesign s
Ġslipp ing
Ġscrewd river
ĠEm my
Ġsquish y
Ġgarden er
Ġcent er
Ġriver s
Ġmark ers
Ġresp ond
Ġt igers
ile y
Ġjar s
pec ting
Ġfrown s
b ird
Ġflutter ed
ĠSad ly
R ibbit
ĠS l
ĠK it
Ġfirefight er
ĠR yan
Ġsec ure
Ġsuit s
Ġsprink led
Ġcream y
Ġbr u
as hes
Ġshark s
Ġignor ing
Ġgigg les
Ġtight er
Ġtiss ue
Ġfirm ly
ĠL aura
oun ce
f ly
Ġsh own
Ġfamil iar
Ġthorn s
Sp ike
ĠW o
Ġdraw ers
ch ild
ĠZ ee
C ar
Ġexp ress
Ġd aring
Ġde f
ment s
Ġcross ing
Ġaud ience
Ġcloud y
Ġperform ing
Ġcolour ed
Ġc or
Ġa is
a e
ĠN ick
r at
Ġpedal ed
G et
Ġmix ture
Ġt il
Ġgrace fully
g gy
Ġhaircut s
Ġyield ed
Ġp onies
Ġdis ob
Ġcrown s
Ġbit s
Ġto dd
ĠS leep
Ġhang ers
Ġnervous ly
bb led
ĠP atch
Z oomy
Ġ 2
Ġpay s
Ġpe ck
Ġe v
Ġstro ke
B ang
f all
e en
Ġn apped
Ġres pected
a ven
Ġmind ed
B essie
dd ie
ab ly
B oys
K im
Ġtest ed
ad ing
p arent
ĠUn iversity
Ġbee h
ĠN ear
ĠTurt le
Ġneighb ours
Ġsurf ing
ar row
ĠChr is
ver ed
Ġsh ady
Ġd arl
ion a
Ġmagic ian
Ġenthusia sm
Ġdarl ings
Ġwis ely
Ġst itches
Ġsail s
D ear
ke nd
Ġthought s
Fred dy
Ġwee kend
Ġremind s
ĠTweet ie
Ġtemp er
or ing
ant ha
Ġfle as
Ġsurround ings
Ġspit s
th a
Ġteam s
K atie
Ġfill s
Ġlesson s
Ġfl ip
ĠAl ong
Ġpaint brush
Ġmel ons
Ġmerma id
on i
Ġgrand child
Ġexpl o
Ġel bow
Ġhoop s
Ġsport s
G uess
Ġli es
ĠF ighting
ra c
Ġpan icked
Ġam ount
Ġclean er
c used
Ġlong est
Ġscoot ers
Ġl ent
Ġs ill
it a
Ġbel oved
immer ing
Pipp in
Ġbeeh ive
Al right
ll e
ong rat
og a
Ġoy sters
Ġgrand parent
ongrat ul
Ġforgi ven
Ġmagaz ines
ĠW ise
Ġar r
Ġe lf
Ġrepe ating
Ġdiscuss ed
Ġsweet est
ĠThank s
K eep
Ġwa dd
Ġre ass
Ġla ce
ĠMay a
ĠGr anny
Ġnightmare s
ĠW illy
Ġtub es
Ġunderstand s
Ġspoon ful
A m
Ġn ood
ĠZ oey
Ġbat hing
ast y
Ġman ners
Ġswe ep
c row
Ġb ully
Ġn ur
ĠH olly
Ġwr ink
Ġspr ang
Un cle
Ġgu ide
ĠY et
Ġc rew
on na
an cy
rom ise
J azz
Ġbreat hed
ent ly
ild a
wh ile
step s
ĠB ally
Ġbulb s
Ġne are
Ġgrass y
Ġsp ies
Ġtest ing
Ġwigg ly
Ġc oug
ĠR oo
Ġsol ving
Ġsheet s
Ġfoot steps
nt il
After wards
Ġspeed ing
Ġfo cused
ce pt
oun ced
? !"
Ġbra ver
Ġcam el
Ġmesmer ized
ĠSpark le
Ġhesit ant
Ġlick ing
Ġr ushing
ĠW ell
ĠP uppy
Ġjoin ing
Ġpol ar
Ġgreet ed
- -
es pite
ĠBu bb
ĠMar tha
K iki
Ġwor n
Ġch anges
Wh ich
ĠN obody
Ġmaterial s
und red
Ġstor ed
Ġbicy cles
Ġm ast
Ġan ger
Ġpeace fully
Le ave
Ġship s
Ġsp ice
Ġn uzz
Ġg onna
Ġterri fied
ĠSh ow
Ġpol itely
Ġscare crow
Ġspill s
Sn ow
Ġkn ives
ĠMix y
Ġev il
pp ies
Ġbury ing
c a
Ġare n
Ġheal ing
Ġdon key
Ġaeropl anes
E ven
f reeze
Ġm iles
Ġse als
Ġscatter ing
ĠChew y
Ġd ump
am boo
Ġworry ing
B ee
D avid
z oom
be ep
ĠL enny
Ġpuzz led
Ġst acked
P enny
ĠK ip
ĠN ice
Ġlo ses
ĠW in
dd ing
Ġbasket s
Ġtrave lled
ĠO kay
Ġbl ast
Ġgaz ing
ip es
H urry
Ġtemper ature
ĠT ess
Ġu nd
Ġcl ue
Ġtast ing
Ġdri pping
Ġbelie ving
Ġpinch ing
er m
Ġso aking
Ġrat s
Ġ1 0
is c
Ġsand y
re ct
ĠIs n
ĠS imon
re y
an while
ĠAb i
B inky
Ġban ged
Ġpunish ment
Ġhuman s
Ġcras hing
Ġfor ce
ĠA na
Ġh undred
Ġg est
ĠL ia
Ġswim mer
ĠChe ss
Ġsnowfl akes
Ġrelax ing
ĠF airy
Ġres isted
Ġbeep ed
Ġquarrel ed
f orm
Ġr amp
el ie
ĠW endy
Ġjo ins
ab by
Ġbackpack s
Ġdress ing
Ġdelay ed
year s
Tw o
ĠP h
Ġtodd ler
ĠL uckily
ĠT e
Ġfl ight
Ġcover ing
B y
O pen
or ter
Ġben ches
Ġencourage ment
Ġtow ard
Ġscra ped
Ġfo cus
Ġpurp ose
B ow
T ony
ĠJu dy
Ġcor rect
' ."
S pe
Ġlip stick
Ġb amboo
ĠC ow
Ġpot ion
Ġperm itted
Ġtwink led
Ġmonth s
Ġlangu ages
Ġord ers
Ġfreed om
Ġm aster
Ġpo ppies
Ġrisk s
sh m
Ġnood les
Ġf aded
K ids
Ġwound s
ri er
shm allow
is ions
ĠJo jo
Ġbird house
Ġcream s
ĠHer b
Ġcell s
Ġannoy ed
op es
Ġche ers
Ġad ults
Ġsniff ing
Bird y
Ġunw ra
Ġp uck
ec ca
Ġflo ats
Ġopin ions
Bu zzy
and as
In stead
Ġfl own
Ġsc en
Ġhands ome
Ġsnee zes
ĠM int
Ġno dding
Ġ 5
Ġsmell ing
Ġbur nt
Ġdri fted
b age
id er
Ġwith in
Ġhe ight
Ġsc ient
Ġbother ing
Ġdam aged
Ġsl ither
Ġte aring
Ġple aded
Ġinstrum ents
Ġe ase
B ack
d a
ĠMar ie
Ġscient ist
M ira
Good night
ĠAl i
Ġp ound
Ġhand ing
Ġsell er
Ġg erm
ĠS ay
Ġwas ting
Ġfile s
Ġdream t
Ġres ults
C arl
b ell
ĠM abel
Ġexplain s
Ġdestro ying
Ġbrus hing
Ġhis s
ous y
ĠC r
ĠR azor
Ġcharac ters
Ġc ertain
ĠSt e
P andy
Be hind
Ġsweat y
ĠH ug
un ched
Ġbus iness
Ġon ward
Ġtal ents
ĠRob bie
T ry
Ġbrave st
Ġeng ines
it ion
Ġstern ly
ĠP en
Ġpost man
Ġmosquito es
prin ts
Ġmind s
c ake
u nder
Ġt uck
Ġscare s
ĠJan ie
u rious
Ġstom p
Ġapolog ised
u el
Ġman ag
Ġb itten
Ġsn uck
Ġsw itched
Ġdec isions
Ġremind ing
atter ed
Ġtil ted
Ġsing ers
Ġdes per
ĠPo or
Ġbehavi or
as hing
ĠJu dge
bb ers
in ny
Ġsque aked
Ġpeel ed
ĠEvery body
Ġy umm
Ġpur rs
ĠB ra
Ġsm ashed
Ġtreat ed
ĠU ntil
Ġdisplay ed
Ġrust ling
Ġneat ly
Ġmate y
ĠB ess
Ġplant ing
Ġmar shmallow
Ġin sp
Ġs y
Ġcra cks
Ġbell ies
Ġyelp ed
Ġgrandparent s
a ver
Ġsc amp
Ġshin es
ĠN avy
Ġh oo
Ġfa iled
Ġcolor ing
ĠY oga
l ine
ĠM ake
Ġzoom s
r up
Ġn asty
Ġbreat hing
Ġcomb ed
Ġp andas
Ġdes pite
Ġadd ress
ig hing
Ġwater fall
om p
uff in
c c
ĠL oop
ĠAng el
T illy
Ġro bbers
Ġant ic
Ġwid er
P lay
Ġdoor way
Ġsweat ers
Ab igail
Ġecho ed
e vin
ĠTo dd
Ġed ges
Ġin j
ĠSh adow
A unt
Ġg ap
ĠBl inky
Ġdisob ey
L iz
w ise
Ġt ar
ĠM ichael
ĠFl ick
W ake
or king
os cope
Ġmagn if
Ġtap ed
f ather
ul p
Ġact ion
Ġscold s
Ġflap s
R os
ĠM indy
Ġcrawl s
Ġgo bbled
Ġback s
Ġsw ap
S low
ĠE ddie
ĠG ary
Ġwar ri
ĠFish y
Ġst eth
Ġse ver
Ġshin ier
Ġprob ably
Ġnewsp apers
R ock
Ġo cc
Ġsever al
L ena
T ed
Ġenc ount
ĠMe g
Ġpl ucked
Ġquiet er
Ġser ving
Ġconn ected
t ock
Ġ ouch
ĠSh are
A dam
ig ger
F l
Ġgest ure
T oo
Ġpl ot
Ġdoor bell
Ġstud ent
Ġcare s
Ġsqu aw
f ire
ĠS e
Ġresc uing
Ġgrand son
Ġg oo
Ġsp y
St eve
Ġrow s
Ġsimp ly
i el
Ġwhist les
m ies
M agic
v ant
Ġsh orter
Ġsnap s
Sh rink
Ġastronaut s
ĠTim e
ss ss
Ġunpack ing
Ġcott age
Ġsw o
Ġaccident s
Ġm ood
ĠN ut
ib i
Ġswo llen
an ie
ĠM ousy
ab elle
ĠZ ippy
Z ara
Ġbother ed
H annah
Ġsteth oscope
M at
f ound
Ġca using
Ġtrust ing
M ad
Ġdress er
Ġleap t
Ġs ou
ain t
Ġpill s
Ġprop er
ret ty
Ġthrough out
O live
ĠD ina
Ġrun ner
Ġpray ers
J amie
Th omas
Ġjoy ful
m ates
Ġlo cks
ĠPr ince
Ġgoat s
wh at
Ġtar get
re st
ĠW ait
ĠK aren
ĠB ang
Ġde ars
R ed
Ġm unch
Ġfl ips
ĠC ro
art led
Ġwadd led
Ġlow ered
Ġste pping
Ġcon s
ĠJack ie
Ġteacher s
ĠT oys
Ġcowb oy
Ġin ches
Ġenvel opes
Ġch ar
ear s
ĠV room
Ġexplore r
Ġantic ip
Ġplay d
ĠR uff
ĠR alph
ĠRe ady
N ice
un ity
Fin n
ĠB ad
en ing
ĠP l
Ġfloor s
Ġknock ing
Ġeffort s
Ġuniform s
l ied
ĠT ri
Ġaw are
Ġfoot prints
ĠF iona
Ġnear ly
Some one
ll as
ĠR ia
Ġdis c
Ġs ens
Ġwh imp
Ġtr ot
Ġgl itt
iv i
Ġappreci ation
oo sh
Ġne cks
Ġche cks
Ġcoll ap
Ġla pt
Ġex cept
Ġpl ug
Ġch arge
ĠJack y
Ġflutter ing
Ġumbre llas
Ġstamp ed
ac y
Ġsandcast les
Ġstat ues
H oppy
om b
ĠH oney
ail s
Ġshr ank
ĠDave y
ĠAm elia
isc uit
r ily
Ġfin ishing
Ġpri ck
Ġadd s
r ons
Ġchocol ates
Ġhunt ers
Ġstro ll
Ġdod ged
Ġpassen gers
Ġgerm s
og er
Ġwr igg
Ġap rons
Ġais le
Ġset s
ĠG erry
.' "
Ġwe eds
Ġnovel s
ĠT aking
or der
Ġdemand ing
Ġscratch ing
Ġmeow s
D r
iss a
Ġnur ses
L ucky
Ġmind ing
Ġdiscuss ing
Ġk illed
ur render
ĠC ari
Ġdrive way
Ġbec omes
Ġha ird
Ġtool box
ĠEl iz
Ġlapt op
ĠD espite
Ġpo sit
Ġatt ack
ĠSad ie
Spe edy
ĠG l
so l
Ġbounce s
Ġscamp ered
Ġde ed
Ġspray s
Ġsupp lied
Ġtem pt
Ġburn s
Ġfriendship s
Ġsuggest ion
Ġsl apping
Ġclos ing
Co co
A rrr
Ġbelong ings
Ġinvit es
Ġanticip ation
Ġfor m
ĠSt an
Ġspring ing
Ġer ase
Ġcott on
Ġr ays
Ġtwist s
Ġforgive s
Ġsnugg le
Ġmodel s
Ġsh all
Ġhum ming
Ġmass ages
on nie
Ġnew found
Ġrespond ed
Ġex pecting
Ġghost s
ĠShe lly
Ġche ated
Do es
ĠWoo ly
G igi
ott e
ĠN e
Ġtravel ing
Ġal though
Ġco nd
Ġbat tle
Ġmom mies
allow een
Ġa im
Ġcar ries
Ġinvit ations
Ġrefres hing
Ġcon c
Ġpresent ed
he l
Ġr owed
ĠB umpy
Ġtw enty
ot s
Ġsqu ir
ri e
Ġfox es
arl otte
Ġcoop er
Ġfin al
Ġduck ling
ĠB ibi
Ġca fe
P ip
Ġmarshmallow s
Ġcl icked
ĠZ ipper
o or
Ġbe aver
Ġdes igning
Ġjet s
f ive
ĠH alloween
ĠM uffin
Ġmug s
ĠWho ever
Ġdr own
ĠAl though
ĠR uth
Ġtri cycle
Ġcon vin
Ġpicnic s
Ġopp os
ĠEx cited
i ens
ĠC le
p o
Ġc ongratul
ĠP op
Ġscoop s
ĠMad die
Ġal iens
Ġtravel s
ĠâĢ Ķ
Sad ly
Ġtest s
Ġquestion ed
N ear
in ted
Ġcra ft
ĠSpe ed
Ġstrip s
B r
M ouse
at ty
Ġde fe
co vered
ĠFl utter
ĠBubb a
ir i
Ġfight s
B all
ro ken
Ch loe
ĠBig gy
Ġoppos ite
E lly
F ind
H mm
J ess
ĠI m
Ġr out
ĠN ever
Ġgrand father
Ġaff ord
Ġencount ered
Ġdec l
in ch
Ġra ising
im ent
Ġup side
ĠV ivi
Ġfl ashed
ĠR ita
Ġcalm ly
Me anwhile
r is
Ġreal izes
Ġyaw ning
Ġsince re
Ġb uddy
ĠSam antha
Ġcryst als
Ch oo
Tr ust
atur day
Ġcup cakes
Ġbuck led
B oth
by es
Ġwin ners
Ġdef in
ver se
Jo sh
' ,
Ġca w
Ġweap ons
ĠS aturday
Ġche at
sh adow
Ġpack ages
Ġsa cks
Ġgood byes
Ġco ach
Ġatt em
Ġmes ses
qu et
Ġcon vers
ĠTr uck
ĠFl o
v al
Ġdri ft
Ġcap s
ĠM ina
Ġen em
Ġenem ies
ash a
Ġscr ub
Ġyumm iest
Ġsw allow
Ġreturn ing
ri an
ĠE va
Ġadmir ation
ĠMe gan
ĠSof ty
S ince
Ġspr out
Ġun able
ĠLou ise
ĠPlay ing
ĠAn other
Ġb less
Ġsad der
ook s
Ġbright est
ugg ing
Ġfreez ing
ĠY awn
ĠM an
Ġresp on
re verse
Ġco sy
ĠO h
Ġrespon se
Ġbr ide
Ġdiamond s
st alk
Ġre app
Ġgar bage
Ġhon king
Ġopp ort
Ġstret ches
Ġprevent ed
Ġwhisper ing
er k
Ġo dd
Ġwho ever
ant astic
ĠG ray
Ġaw ful
al th
Ġjourney s
Ġweigh s
Ġaw oke
B rrr
Ġdragon fly
Ġtrap s
Ġspice s
o ff
Ġb orn
H op
Ġcl ip
Ġreass ured
Ġst all
Ġbean stalk
iv ia
Ġarg um
Ġexam ining
Ġbeet les
Ġautomobile s
Ġdefin itely
m ine
ic i
Ġvisit ors
Ġstuff ing
Ġplayd ate
R achel
Ġwas hes
ĠM aisy
b roken
c ie
Ġwis er
Ġcustom er
em ma
ĠJo lly
up er
ĠFl op
Ġtrave lling
ĠSof ia
Ġb ou
ĠN urse
Ġhaird ress
Ġbou quet
, '
Ġt umbled
or se
ĠE lle
bb le
Ġdecor ation
Ġcamp fire
Ġbu d
Ġhonest y
v y
Ġb omb
On ly
eb ecca
Ġwelc oming
Ġoffer ing
ĠHe llo
Ġwe alth
ĠO t
Ġtrou bles
Ġincre asing
Ġocc as
ĠJ ax
Ġloud est
Ġinsp ired
Ġpar ted
ĠCh ick
Ġgro an
Ġty pe
ĠNut ty
ir ac
Ġwh ales
ĠTh under
ĠR icky
y l
Ġdecl ared
Ġcorrect ly
f us
y ler
ook y
Ġbeak s
ĠQuack y
Ġcle ared
ath an
Ġcowb oys
ĠDot ty
Ġnuzz led
Ġex ch
Ġpri zes
Ġwarm ly
Fin ny
ĠMiss ile
Ġre wards
Ġobey ed
Ġcustom ers
ĠF el
Ġcomfort ing
Sh ould
Ġsiren s
sh aped
ĠFl appy
Ġconn ect
m atch
ĠB ingo
ĠM agic
Ġtown s
H oney
Ġre ly
ĠV icky
elie ve
Ġf antastic
ĠF e
Ġtr igger
Ġown s
Ġbend s
Ġinsist ing
Ġspo iling
Jul ie
Ġhairdress er
Ġp ipes
Ġpo ses
Ġshare s
Ġclean s
Ġsupport ing
Ġsurrender ed
Out side
S un
ĠC ook
ren ch
Ġwrink led
Ġcho pped
B eth
Ġmo ons
Ġrec order
Ġbeam ing
un es
ell ow
Ġthan king
Ġsnow y
ĠWo lf
J e
Ġsc urry
Ġenjoy able
Ġact ive
Ġexper ien
Ġc oral
ĠP iggy
Ġdoll ar
Ġenv iron
w orm
el ope
Ġlo c
ĠK evin
ĠB ub
Ġstream ers
Su zy
ĠPat ty
ud ged
ĠM other
ĠZ ack
ing er
Ġex amp
Ġshort s
Ġshoo ed
Ġenviron ment
T ree
Ġ ill
Ġsc ent
Ġbru ises
ĠL uc
ust er
Ġgr at
B o
Ġhis ses
Ġpl ugged
Ġsel f
Ġsteer ing
ĠEls a
Ġwarri or
Ġvisit s
Ġexerc ises
ir l
ĠA r
ap tain
Ġdan gers
ĠR el
sc reen
Ġcudd les
Ġs igning
ĠM in
Ġun fortunately
Ġsqu ished
ĠL ight
be e
R ay
Ġdisappoin t
Ġpilot s
m unk
Ġapplaud ing
Ġgrat itude
ĠM oppy
Ġprov iding
J oy
Ġt ing
al f
ĠR ub
Ġtick les
G row
Ġbad ger
Ġnight s
Ġju d
Ġstorm s
ĠEls ie
Ġconvin ced
Ġyou n
ĠK elly
Ġrespons ib
Ġchoo sing
A bby
Ġbra ins
Ġactiv ity
Ġneare st
Ġyoun gest
Ġexplo ded
Ġarr anged
Ġcoug hed
C laire
ĠT re
ĠF ly
Ġreward ing
M on
g ood
p r
Ġbo nd
Ġsun screen
Ġpe ep
erp iece
ĠFl oppy
ĠS weet
as ers
ĠK aty
ĠTweet y
ĠS al
ĠJo an
il ities
Ġannoy ing
s n
Ġsoap y
S plash
me ow
Ġrail s
Ġlace s
Ġt apping
Ġoff ic
ĠP ine
Ġthread s
Ġappreci ated
Ġwe ighing
ĠP ick
bo ards
Ġheart broken
Ġemer ged
Ġcongratul ated
D anger
Ġt in
ĠS il
Ġcl erk
Ġcrocodile s
ĠPh il
Ġscr am
Ġattem pt
w ater
Ġd ial
ĠA ny
Ġsn ug
Mom ma
ĠK ay
Ġmess ed
ĠN ancy
Ah oy
Ġexamp le
Ġhook s
ĠJon ny
Ġtop s
Ġchip munk
Ġso ot
Ġbat hed
Ġguard ing
ĠT ippy
Ġmanag er
ort unately
ĠMic roscope
F riends
ĠD e
et ah
ĠB aa
Ġmast erpiece
Snow y
Ġer asers
Ġf et
ĠTom orrow
Ġfin ishes
Ġtip s
Ġcomm on
Ġme mb
Ġdig s
Ġnibb led
Ġtrot ted
Ġmemb ers
Ġkind er
Ġche etah
Pe ople
Ġbl ond
Ġchew s
Ġparticular ly
ir cle
Ġbe ast
Ġrip s
L izzy
Ġargum ent
at ive
Ġfa ith
ĠHelp ing
Ann e
Ġearn ed
ĠC ici
ĠJo ke
Ġobser ving
Ġforgiven ess
ĠJ umpy
Ġche aper
Ġmis chie
Ġfis hes
Ġcur l
Ġinst antly
Ġexperien ced
Ġc ages
Ġgener osity
ĠTw ist
Ros ie
Ġmischie vous
B aa
G r
Ġfo am
Ġmeow ing
C indy
m ered
Ġstore s
Ġgrand d
ĠA g
Ġmatter ed
etch up
Ġl imp
Ġp asses
Ġte les
S que
Ġsleep s
Ġbreath s
io let
et tle
Ġr in
end ing
Ġtr ans
ord inary
ĠFred die
Ġgasp s
G ot
Ġr umbling
Ġhat ch
o ver
ab ra
ĠMom ma
Ġgrass ho
ĠHo pper
Ġaccompl ished
Ġth ump
Ġstr um
ac ing
Ġmat s
Ġsmart est
Ġteles cope
Ġwh ined
Ġmo at
G ina
ĠI ce
Ġj ugg
Ġfarm ers
Ġscram bled
Ġdri p
Rob bie
ĠM ore
Ġgarden s
Ġang rily
Ġsy rup
Ġcollap sed
ou raged
ide y
Ġforest s
Ġve gg
Ġdiscover ies
Ġsty les
Ġexperience s
Ġto r
Ġmed als
ho le
Ġf aint
Ġmean ing
Ġcon qu
ĠDo es
Ġotter s
Ġty pes
p it
Ġf if
ad abra
Ġsn apping
Ġhard est
ac ock
er ing
Ġmove ments
Ġexpress ion
Ġch illy
Ġbubb ly
Ġsur v
Ġaff ect
P inky
Ġcour t
Ġvest s
Ġunf air
When ever
Ġtooth brush
Ġextra ordinary
Ġscore s
N ever
Ġatt itude
Ġblue bird
Ġhor ri
Ġvi br
ĠMon key
M o
m el
ll s
Ġk etchup
Ġspear s
M other
ĠB erry
Ġsoon er
Ġbehavi our
Ġgrassho pper
Ġha bit
Ġpat ches
K aren
y d
er ts
Ġmom ma
Ġaf ar
Ġpoke s
ĠAsh ley
J on
J acob
l o
Ġth ie
Ġsc ri
ĠF riend
Ġthick er
Ġ icky
ĠT erry
ĠF le
Ġshr unk
Ġclass mates
Ġsquee zes
Ġslither ed
Ġglitter ing
Ġprick ly
Ġexp ert
Ġto pp
ĠS uper
ĠR iri
Ġkneel ing
Ġann ounced
ell ing
Ġpe acock
Ġmark ing
ĠA choo
ĠC ally
ct ric
Ġcost s
Ġwater mel
Ġzigzag s
Ġthie ves
Ġh ood
ĠA pp
Ġjump er
Ġsk irts
ĠZ og
Ġact s
P apa
Ġwo lves
ĠCl oud
ĠSw im
Ġco coon
Ġcon cer
Ġsque aky
Ġthumb s
Ġbo ards
Ġwood cut
ĠEliz a
J essie
Ġser vant
id ence
Ġche ating
ĠBe cky
aff le
b u
Ġr aking
ĠJ ason
Ġtr ading
c at
Ġexplain ing
Ġb iscuit
ri ck
ĠE ric
Ġtid ied
ĠA c
Ġlunch time
Ġluck ily
an ced
ĠP uffy
Fr og
Ġspill ing
ĠD ay
F ire
ĠU se
Ġdess erts
ĠDan iel
ĠAn imal
ĠMad dy
Ġtrans form
r or
ĠM ine
âĢ ¦
ĠP ig
ĠG ill
ĠSt ill
r ough
Ġm irac
am ma
ĠC aptain
Ġmess ages
ĠT ammy
id y
Ġbe ating
ĠL ung
Ġch ill
ĠG illy
Ġwindows ill
o ot
Ġsee king
Ġa ctor
ĠRain bow
ĠL ina
ĠWill iam
s se
it s
ĠM ath
A ny
Ġfore shadow
pr il
w ar
ĠH i
ĠP inch
ac les
ĠSt ep
Ġlean s
Blue y
B ounce
F reeze
ĠT iger
Ġhis sing
Ġfl ashing
Ġde v
Ġcloth s
ĠMon ster
rac adabra
Ġwatermel on
Ġfun n
Ġwind ing
Ġdisc ouraged
Ġposit ive
p op
Ġfor ts
Ġdri pped
Ġcompet e
ĠFrank ie
Ġwoodcut ter
Ġtea pot
Ġpress ing
Ġdisagree ing
ĠW il
ick ing
Ġgl immering
Ġtidy ing
Ġtrust s
Ġkangaroo s
Ġvegg ies
ĠPe ep
Ġland ing
Ġtemp ted
ĠFl ora
Ġdo ck
Ġfor med
Ġsh allow
Ġover w
l ers
Ġf ade
Ġr ack
ĠTo oth
f lowers
el ing
Ġwor st
Ġele ctric
Ġcop s
Ġapolog y
Not hing
a i
i ving
ĠL ife
cream s
Ġsled s
ĠSil ver
Ġas s
up id
Ġcomet s
B ug
Ġsa v
ĠM ag
ĠJ elly
ĠSh ark
Ow l
Ġ 4
Ġp apa
Ġsitu ations
Ġconvers ation
Ġoffic ers
R ain
ĠR oger
ĠCh arlotte
Ġd ing
ay e
st orm
Ġsun s
ĠBut ter
âĢĿ ,
Ġpizz as
Ġzip s
Ġmill er
Ġstructure s
Ġscurry ing
Ġoverw hel
Z oe
Ġf oggy
ĠH urry
ĠOl ivia
Ġgrandd aughter
ĠJane y
ĠAm ber
Ġweb s
Ġdeser ved
R abbit
ĠS asha
ĠB uster
ĠSp idey
ĠY ummy
Ġcub s
ĠMix ie
Ġopport unity
Ġsn orted
ĠGo ld
Ġrhin o
Ġdifference s
ĠT ell
Ġquack ing
F ifi
Ġhe aven
end ed
if ully
ĠBird s
Ġle vers
Ġunl o
Ġinch worm
ĠT yler
Ġin ter
Ġappro ach
o f
ĠB oom
Ġpo sse
ĠRu fus
Ġseagull s
Ġcooper ate
ĠFel ix
Ġposse ss
s ers
Ġpo se
?âĢĿ .
wel come
rag on
and ra
ĠSm oke
Ġdisappoint ment
oc ular
Ġspeak s
Ġsneak s
Ġbin ocular
Ġart work
sn ap
Ġsc owl
Ġanswer ing
ĠSn ake
Ġsurf ed
ĠGra nd
Ġshort cut
Ġs ipped
Ġd ep
Ġrob in
ĠIn ky
Ġar rest
Cl imb
Ġre un
ss y
Ġam used
Ġribb it
ĠAm anda
Ġunwra pped
ug ar
Ġpepper oni
Ġrepe ats
Ġappl ause
ĠM ae
ĠC ars
Ġkey hole
Ġcheck out
D eal
L ia
Ġvisit or
Ġstri king
Ġpadd ling
Ġpuppet s
E at
ĠB rian
Ġun z
ĠC ircle
Ġatt acked
Ġcro aked
Ġsp ooky
ĠG us
ors ie
ĠOt to
E ach
Ġbeaut ifully
Ġgroan ed
g ar
cident s
Ġcheck ing
ĠJe an
Ġswimsuit s
Ġcons ider
u ses
ĠY ellow
j est
Ġg room
Ġwater s
ĠSque ak
ĠSl inky
y le
Ġin vent
L uke
Ġnet s
Ġexam s
u dy
ot ion
et s
Ġdry ing
Ġl ump
ag ine
ĠR ebecca
art in
ĠAunt ie
Ġshrug s
s ie
ĠS ince
le st
Ġso bbing
Ġshy ly
Ġcheer fully
Ġshoot s
Ġheel s
Ġhonk s
h ny
il i
es ses
Ġsh h
Ġch in
an ish
Ġhang s
Ġhealth ier
Ġwhimp ered
M ilo
ĠM us
ic ious
Ġcaterpill ars
Slow ly
Ġf ries
Ġsqu inted
ĠR atty
izz es
Ġmagnif ying
ĠF ind
Ġbl amed
Ġfascin ating
ĠT ip
ch ing
Ġsc ulp
Ġfrustr ation
Ġsculp ture
ou ched
Ġsh immering
Ġpo ss
ĠPe ace
ĠPen elope
Ġs uck
ed ic
Ġnumber ed
Ġple as
Sh aring
ĠW affle
Ġnibb le
i bbles
am il
ell ie
oth y
Ġflow ing
Ġba a
hing s
Ġgr umbled
ĠO ff
Ġra ked
Pe pper
th at
Ġbuild er
Bu bbles
e at
Ġfa cing
Ġgu ards
Ġpet ting
Ġsway ing
ĠWoo lly
rac ted
ĠH ar
Ġmyster ies
Ġsprink le
Ġdet ails
Y esterday
se y
Ġfl ock
Ġsn ort
Ġen emy
ĠBo at
ĠB arry
Ġgood ies
ĠC urious
Ġtable t
Ġtexture s
Ġw ig
Ġpo pping
Ġcr ops
Ġmar ve
Ġcount ries
ĠGra cie
Ġfan s
Ġwild flowers
Ġstack s
h ow
ĠJen n
Ġknob s
ĠSee ing
Ġbush y
ĠTess a
Ġloc al
Ġste w
Ġbow ing
Ġang rier
Ġhunt ing
Ġdrown ed
ĠBub u
Ġpeep ed
Ġbinocular s
ĠM atch
Ġmap s
Ġn iece
Ġqu izzes
ĠG low
Ġmoon light
ĠD eal
ĠJohn son
Ġoutfit s
O O
Ġw rench
Ġwh oosh
Ġweak er
Ġmind ful
Ġcrow ded
S qu
Ġend ings
cy cles
ĠBee f
I m
o ll
Ġfl ashes
Ġhesit ation
Ġproper ty
Ġbo il
Ġcar ts
Ġab ility
Ġun less
ĠAnd rew
Ġfo nd
ĠO xy
Ġimagination s
amil iar
st and
get ic
Ġgl ared
ĠR ight
ĠAc cidents
Ġha ven
Ġkn it
Ġfold s
Ġmic row
Ġspace s
Ġunf amiliar
T una
s aw
ĠP et
th s
Ġdirt ier
Ġresponsib ility
b ank
Ġp ouch
Ġdesk s
Ġmicrow ave
B less
Ġcrack er
ib ly
Ġd ate
Ġsw apped
ĠO xygen
rn ie
Ġmem ber
Ġast on
ĠR ing
ĠR avi
C ra
W ant
f ree
l t
ĠB un
Ġwh ine
Ġre bu
Ġdoor step
Ġsoft ened
Ġdisappear ing
ĠHel en
Ġn atur
ĠCh ip
ĠPe ggy
Ġquack s
ĠT oo
ĠF ix
Ġlisten er
sc ar
Ġwrit er
Ġbl ushed
Ġpri v
ĠSp icy
ven ir
Ġpalm s
u pt
re pe
Ġnot icing
ĠP ast
Ġsou venir
po ison
ent r
ĠR es
ĠG abby
Ġdis aster
Ġlaw s
repe at
ĠT ra
re g
st r
end ant
Ġph ones
Rob by
A va
ĠL i
ĠB ert
al a
ĠC ut
ĠCo al
Ġconf idence
Ġstir s
Ġtim id
Ġoverwhel med
ing ly
Ġfl ick
Be ing
Ġmay or
C he
Ġt ugging
as mine
ĠP retty
gu ess
ĠMo le
l or
Ġunt angle
Ġowl s
Ġmail ing
Ġsatis fa
Ġinj ured
ĠB ooks
Wh ose
ĠWh ite
Ġconc entr
ĠIm mediately
Ġsatisfa ction
F ly
S c
ĠMar ch
Je ff
ĠAnimal s
M ittens
M abel
m ers
Ġl im
ĠE at
Ġpr ank
th is
ĠWo nder
W iggly
ĠB onnie
ĠP ot
ĠR un
ĠN ora
ĠMel issa
Ġhoo ves
ĠTri angle
w ell
ĠS ir
ĠK n
Ġfix er
ĠSt artled
ĠCl ose
ĠCle an
ic ate
Ġcl ut
Ġsn ar
b ling
l ish
Ġsk ies
ĠTr ucky
Ex cited
Ġinstrum ent
ĠH orsie
ĠF aye
Ġcap t
ĠMat ilda
ad ually
Ġdisag re
S usan
Ġpe cks
Ġcre ak
ik y
Ġstain s
ĠSleep y
Ġwrigg led
Ġrin se
ĠS ing
ĠI cy
Ġsh ave
Ġbump ing
ĠHel i
ĠCra bby
Ġr uff
ul f
Ġbend ing
Ġswir l
Ġsand pit
cess ary
Ġexplor ation
Cl ose
ĠSc issors
Ġchat ted
Play ing
M ake
Ġle ver
Ġrod s
Ġfact s
S m
ĠC andy
Ġattach ing
ĠB ro
Ġfool ed
Ġbur ger
W ally
Ġglow s
Ġclear ly
May a
Ġconcer ned
Ġla va
Ġcomp an
Ġsal on
Ġrever sing
Ġcertain ly
Ġsm elt
el s
Ġcir c
Ġmotor cycles
Ġfet ched
Ġt unes
Ġsomet ime
Ġtr oll
Ġold est
Ġpro d
Ġfiref lies
K ayla
R ing
Ġkiss ing
Ġchallen ges
Ġblond e
ĠBob bie
Ġwarm ed
Ġb ound
ĠL ots
Ġdifferent ly
Ġunlock ing
Ġnatur al
D ino
T ara
s a
er g
urp le
Ġcut ter
Ġru bb
Ġcup cake
Ġriver bank
Ab racadabra
Ġdet ect
Ġconqu ered
Ġall ey
Ġhat es
ĠFl ap
s orry
Ġreal ise
ĠO pen
Ġsend s
Ġswir ls
Jul ia
ĠFlop sy
Ġm unched
ĠC ammy
Is n
Ġwigg ling
Ġbang ing
Ġsens ation
Ġf ist
Ġcl ips
Do ctor
Ġhipp os
ĠRel iable
Ġtopp ings
H ope
Ġha lves
Ġst ings
Ġro be
Ġbr akes
ĠGreen y
Ġsway ed
Ġmirac le
F ish
M ichael
ĠP ink
Ġostri ches
ĠCl imb
Ġsurv ive
ul a
Ġother wise
ber t
Ġcr ushed
Ġbubb ling
Ġemb ra
keep ers
Ġtor to
Ġtent s
ĠLook ing
an i
ĠO f
Ġrepair ing
ĠW orking
Ġliz ards
Ġstretch y
Ġvine gar
ĠFlick er
Ġrubb ish
ĠE d
Ġpassen ger
Su zie
M any
Ġp ounced
ast e
ĠWh ich
Ġvibr ant
Ġtorto ise
ĠR h
ĠGr ump
Ġscen e
g r
Ġb as
Ġgl ided
Ġmoo ed
Ġdesper ately
Ġp oop
Ġint ently
Ġsn ip
Ġcalm er
Ġcop ied
ĠSunday s
Ġma jest
ĠLight ning
n et
ra p
Ġj ing
Ġtw el
ĠP er
Ġwo ken
Ġjoy fully
Ġcoo lest
Ġrag s
Ġjud ges
Ġgl ob
ĠJo dy
Ġlecture s
sm elling
Ġh ips
is ible
ly n
Ġcous ins
Ġaston ished
Ġcap es
un o
ĠL u
Ġgu esses
Ġarri ves
Ġinv isible
Ġsuccess fully
Ġspeak er
ĠOut side
Mike y
Ew w
Ġgoo ey
Ġreun ited
Ġbat s
wh y
Ġtwel ve
ur ity
Ġgood ness
Ġcomput ers
Ġchat ting
m ie
nd ed
Ġstack ing
ĠCarl a
Ġsnowfl ake
Ġpark s
ist ory
Ġrac er
Ġcomm un
Ġpound s
Ġdesper ate
Ġreapp eared
Ġcompan ion
O l
Z igzag
b ed
Ġd ou
Ġan k
Ġle vel
Ġluck iest
L ou
N ick
Ġt ale
Ġd umb
Ġg all
ĠS ugar
Ġsell s
Ġcricket s
Ġstomach s
Ġs us
Ġg ates
Ġwind s
igg les
ĠSte ven
Ġdisobey ed
Ġdisagre ement
M ore
h ile
ĠW hee
Ġho ses
Ġcr isp
Ġaw hile
Ġpearl s
L inda
it es
Ġso da
Ġloyal ty
ĠOr ange
Ġpops ic
Ġtong ues
re nt
us ion
ĠC D
Ġrid er
ĠRos a
O oh
ĠBl ack
p an
ĠL aw
Ġab o
Ġsure ly
d es
Ġbu nd
col ored
ĠAnn abelle
Ġoccas ion
! âĢĻ
d og
r um
Ġst un
Ġchick s
izz a
Ġguit ars
ĠI ron
ch ief
ĠA pril
ĠR aven
Ġintellig ence
Ġalligator s
Ġsepar ating
Ġseas he
Ġrebu ild
Ġabo ard
F ound
Ġcre ep
Ġcro ak
ĠV iolet
C atch
Ġc uc
ĠW inky
Ġlearn er
ĠC are
ĠO ld
aid s
Somet hing
Ġcaut ion
Ġr ins
Ġwh ines
Ġsp iky
ĠUn i
Ġreveal ing
sol ut
w orking
ĠS ettle
Ġtick ling
Ġesc ap
u dge
ĠB a
ĠC oby
Ġunder water
Ġcr ouched
ĠRo ar
Ġglob e
Ġpr og
ever se
Ġbloom s
Ġ' '
Ġappear ance
!' .
J an
f ived
st op
se ph
ur ricane
Ġle aking
if er
ĠSo cky
Ġhat ched
Ġguard ian
Ġstroke s
Ġt ant
Ġdo ves
arn ing
Ġzoo keepers
Ġpersist ence
eal ing
Jess ica
Ġrout ine
S leep
Ġbl ame
Ġqu ilt
Ġsqu ashes
Ġpain ful
Ġlight ing
Ġadm it
Ġtap s
Ch icky
Sn ap
Mat t
T oys
Ġsh attered
Ġmo ld
ĠP uff
Ġri pp
Ġdeep ly
Ah h
Ġtempt ing
R alph
Th ree
Ġthr one
Ġsec urity
gg les
ĠSp in
Ġpeek s
Ġbur gers
Ġcent re
Ġsquir ted
Ġelectric ity
c on
ĠL iam
em on
Ġcook s
Ġreal izing
Ġallow ing
S ophia
o ss
Ġl ar
ck er
us hes
ort h
Ġcho pping
Ġexch ange
ĠR ace
Ġsweet ly
Sh are
ĠQuick ly
ver ing
ĠA lf
Ġsweet er
Ġglitt ered
Ġrins ed
is app
S w
Z ero
Ġgo ggles
ĠIn ch
Ġbuild ers
Ġmel ody
Ġmelt s
Ġfu rious
Ġener getic
Ġdefe ated
Ġwa ded
as y
ĠC omet
ĠCat s
Ġsniff led
Ġchoo ses
ĠOther wise
Ġtant rum
ĠG iant
Ġcompet ing
Ġcontain er
b ang
ĠM ila
ere my
ĠSh arp
Ġh udd
Ġl ull
ar ted
ĠD uke
ĠP ark
ĠR ara
Ġprotect ion
Ġserious ly
Ġund one
Ġattempt s
Ġlar ger
L izzie
Ġcl uck
ĠC her
ĠWh ale
Ġbuck les
Ġhelicopter s
Ġcoo ed
Sh oo
Ġtoss ing
ĠPinch y
S weet
ĠT ears
ĠO ver
ĠSm o
Ġd edic
ĠH or
ĠD in
St ill
Ġhum med
Ġcourage ous
Sque aky
solut ely
C urious
ĠT hings
Ġgo d
Ġal oud
Ġmu ster
Ġpatient s
Every thing
Ġrac ers
Ġdeser ves
Mad dy
U se
ĠM a
ap s
ĠD ragon
ĠSque e
ĠJ et
ĠR usty
Ġmar vel
Ġmeet s
Ġtour s
ĠLiz a
ĠH ops
ĠR eddy
Ġwra pper
Fr oggy
ĠCr usty
Ġbo oth
Ġwh iskers
Ġnice st
Ġimpro ving
ĠL and
Rock y
S urrender
Ġbo ld
Ġimag inary
ĠSt arry
Ġmeadow s
s he
Ġbl ades
Ġob st
ĠPe bby
