{"<|endoftext|>":0,"!":1,"\"":2,"#":3,"$":4,"%":5,"&":6,"'":7,"(":8,")":9,"*":10,"+":11,",":12,"-":13,".":14,"/":15,"0":16,"1":17,"2":18,"3":19,"4":20,"5":21,"6":22,"7":23,"8":24,"9":25,":":26,";":27,"<":28,"=":29,">":30,"?":31,"@":32,"A":33,"B":34,"C":35,"D":36,"E":37,"F":38,"G":39,"H":40,"I":41,"J":42,"K":43,"L":44,"M":45,"N":46,"O":47,"P":48,"Q":49,"R":50,"S":51,"T":52,"U":53,"V":54,"W":55,"X":56,"Y":57,"Z":58,"[":59,"\\":60,"]":61,"^":62,"_":63,"`":64,"a":65,"b":66,"c":67,"d":68,"e":69,"f":70,"g":71,"h":72,"i":73,"j":74,"k":75,"l":76,"m":77,"n":78,"o":79,"p":80,"q":81,"r":82,"s":83,"t":84,"u":85,"v":86,"w":87,"x":88,"y":89,"z":90,"{":91,"|":92,"}":93,"~":94,"¡":95,"¢":96,"£":97,"¤":98,"¥":99,"¦":100,"§":101,"¨":102,"©":103,"ª":104,"«":105,"¬":106,"®":107,"¯":108,"°":109,"±":110,"²":111,"³":112,"´":113,"µ":114,"¶":115,"·":116,"¸":117,"¹":118,"º":119,"»":120,"¼":121,"½":122,"¾":123,"¿":124,"À":125,"Á":126,"Â":127,"Ã":128,"Ä":129,"Å":130,"Æ":131,"Ç":132,"È":133,"É":134,"Ê":135,"Ë":136,"Ì":137,"Í":138,"Î":139,"Ï":140,"Ð":141,"Ñ":142,"Ò":143,"Ó":144,"Ô":145,"Õ":146,"Ö":147,"×":148,"Ø":149,"Ù":150,"Ú":151,"Û":152,"Ü":153,"Ý":154,"Þ":155,"ß":156,"à":157,"á":158,"â":159,"ã":160,"ä":161,"å":162,"æ":163,"ç":164,"è":165,"é":166,"ê":167,"ë":168,"ì":169,"í":170,"î":171,"ï":172,"ð":173,"ñ":174,"ò":175,"ó":176,"ô":177,"õ":178,"ö":179,"÷":180,"ø":181,"ù":182,"ú":183,"û":184,"ü":185,"ý":186,"þ":187,"ÿ":188,"Ā":189,"ā":190,"Ă":191,"ă":192,"Ą":193,"ą":194,"Ć":195,"ć":196,"Ĉ":197,"ĉ":198,"Ċ":199,"ċ":200,"Č":201,"č":202,"Ď":203,"ď":204,"Đ":205,"đ":206,"Ē":207,"ē":208,"Ĕ":209,"ĕ":210,"Ė":211,"ė":212,"Ę":213,"ę":214,"Ě":215,"ě":216,"Ĝ":217,"ĝ":218,"Ğ":219,"ğ":220,"Ġ":221,"ġ":222,"Ģ":223,"ģ":224,"Ĥ":225,"ĥ":226,"Ħ":227,"ħ":228,"Ĩ":229,"ĩ":230,"Ī":231,"ī":232,"Ĭ":233,"ĭ":234,"Į":235,"į":236,"İ":237,"ı":238,"Ĳ":239,"ĳ":240,"Ĵ":241,"ĵ":242,"Ķ":243,"ķ":244,"ĸ":245,"Ĺ":246,"ĺ":247,"Ļ":248,"ļ":249,"Ľ":250,"ľ":251,"Ŀ":252,"ŀ":253,"Ł":254,"ł":255,"Ń":256,"Ġt":257,"he":258,"Ġa":259,"Ġs":260,"Ġw":261,"nd":262,"Ġthe":263,"ed":264,"Ġb":265,"Ġto":266,"Ġand":267,"Ġh":268,"Ġf":269,"in":270,"ĠT":271,"Ġwa":272,"re":273,"it":274,"ou":275,"Ġl":276,"Ġd":277,"Ġc":278,"Ġp":279,"ay":280,"Ġm":281,"er":282,"Ġwas":283,"om":284,"ĠThe":285,"Ġhe":286,"is":287,"ar":288,"Ġn":289,"im":290,"on":291,"Ġsa":292,"id":293,"ll":294,"Ġha":295,"Ġg":296,"at":297,"ĠS":298,"ing":299,"ot":300,"en":301,"an":302,"le":303,"or":304,"ir":305,"am":306,"et":307,"ĠH":308,"Ġit":309,"Ġth":310,"ig":311,"ĠThey":312,"Ġin":313,"il":314,"Ġpl":315,"ĠHe":316,"Ġ\"":317,"ow":318,"ver":319,"ri":320,"ut":321,"Ġbe":322,"Ġu":323,"Ġsaid":324,"Ġplay":325,"ith":326,"Ġday":327,"Ġwith":328,"pp":329,"On":330,"Ġo":331,"Ġy":332,"oo":333,"ked":334,"Ġr":335,"Ġher":336,"ce":337,"ĠI":338,"ĠShe":339,"ld":340,"ĠTim":341,"Ġhis":342,"Ġst":343,"ke":344,"Ġe":345,"Ġbig":346,"nt":347,"ck":348,"Ġyou":349,"very":350,"st":351,"ve":352,"end":353,"Ġon":354,"un":355,"Ġhapp":356,"riend":357,"Ġfriend":358,"all":359,"ily":360,"ĠL":361,"Ġthey":362,"Ġwe":363,"Ġhad":364,"Ġnot":365,"Ġli":366,"Ġup":367,"her":368,"Ġwant":369,"Ġof":370,"ad":371,"itt":372,"se":373,"ĠB":374,"Ġdo":375,"Ġhappy":376,"ent":377,"Ġvery":378,"ĠM":379,"es":380,"Ġthat":381,"Ġsaw":382,"One":383,"'s":384,"ould":385,"Ġmom":386,"Ġfor":387,"Ġsh":388,"ittle":389,"Ġlittle":390,"Ġso":391,"Ġshe":392,"ch":393,"ime":394,"Ġne":395,"Ġnam":396,".\"":397,"Ġtime":398,"Ġk":399,"ound":400,"Ġthere":401,"Ġnamed":402,"Ġsm":403,"Ġbo":404,"Ġwere":405,"ĠLily":406,"Ġwanted":407,"Ġbut":408,"out":409,"The":410,"Ġfriends":411,"ved":412,"!\"":413,"ht":414,"ĠTom":415,"ird":416,"el":417,"Ġbird":418,"al":419,"Ġan":420,"ake":421,"Ġtoo":422,"ome":423,"ĠIt":424,"ug":425,"ide":426,"Ġwent":427,"Ġwh":428,"Ġhel":429,"Once":430,"Ġis":431,"Ġall":432,"Ġhelp":433,"ue":434,"Ġloo":435,"Ġlo":436,"ter":437,"ĠA":438,"Ġupon":439,"ry":440,"ore":441,"ind":442,"Ġfun":443,"get":444,"Ġtoy":445,"ill":446,"ame":447,"Ġas":448,"Ġat":449,"ra":450,"Ġj":451,"Ġdid":452,"gether":453,"Ġre":454,"ur":455,"Ġse":456,"Ġtogether":457,"ack":458,"Ġcat":459,"ly":460,"Ġtre":461,"ood":462,"ic":463,"ted":464,"Ġdog":465,"Ġcould":466,"Ġcan":467,"Ġtheir":468,"ard":469,"ec":470,"ark":471,"Ġgir":472,"Ġplayed":473,"Ġhim":474,"Ġball":475,"?\"":476,"Ġgirl":477,"way":478,"Ġro":479,"Ġgo":480,"hed":481,"my":482,"Ġare":483,"Ġout":484,"Ġle":485,"Ġfr":486,"ain":487,"Ġkn":488,"hen":489,"Ġthem":490,"um":491,"'t":492,"ax":493,"Ġsad":494,"ul":495,"Ġboy":496,"Ġtree":497,"other":498,"Ġhave":499,"Ġman":500,"Ġcl":501,"Ġloved":502,"Ġlooked":503,"oug":504,"Ġfound":505,"Ġsp":506,"Ġstar":507,"ĠSue":508,"one":509,"hing":510,"Ġsc":511,"Ġback":512,"own":513,"ĠMax":514,"are":515,"Ġlike":516,"ful":517,"side":518,"Ġme":519,"Ġbec":520,"Ġpark":521,"ight":522,"ong":523,"Ġcar":524,"op":525,"elt":526,"ĠOne":527,"Ġliked":528,"Ġwould":529,"Ġmake":530,"round":531,"Ġla":532,"Ġfa":533,"Ġfelt":534,"You":535,"ĠW":536,"ell":537,"Ġsee":538,"ĠBut":539,"omet":540,"Ġasked":541,"ag":542,"Ġnew":543,"Ġno":544,"ice":545,"ĠSam":546,"ouse":547,"Ġstarted":548,"ared":549,"Ġcame":550,"ĠBen":551,"Ġal":552,"Ġother":553,"ought":554,"iled":555,"Ġsomet":556,"Ġag":557,"Ġgood":558,"Ġsmall":559,"ss":560,"Ġbr":561,"Ġsmiled":562,"Ġsay":563,"ried":564,"ade":565,"ings":566,"ob":567,"pot":568,"Ġwor":569,"Ġfind":570,"Ġex":571,"ia":572,"Ġaway":573,"ty":574,"Ġput":575,"Ġwhat":576,"Ġsomething":577,"Ġco":578,"Ġfrom":579,"Ġmade":580,"Ġthought":581,"ened":582,"Ġhome":583,"Ġplaying":584,"ook":585,"Ġevery":586,"Ġwal":587,"Ġmu":588,"uc":589,"ach":590,"arn":591,"ĠSpot":592,"Ġran":593,"ile":594,"ĠF":595,"ie":596,"ĠJ":597,"ave":598,"Ġagain":599,"Ġsome":600,"Ġlaug":601,"dd":602,"Ġhouse":603,"Ġdown":604,"Ġfl":605,"king":606,"Ġtook":607,"Ġscared":608,"Ġpr":609,"ny":610,"ure":611,"Ġtoys":612,"Ġlearn":613,"ĠYou":614,"if":615,"Ġwill":616,"Ġbox":617,"ick":618,"ret":619,"ab":620,"ep":621,"Ġmy":622,"Ġaround":623,"Ġthings":624,"Ġyour":625,"oud":626,"Ġbl":627,"uck":628,"Ġwhen":629,"ish":630,"Ġlived":631,"Ġfe":632,"Ġthen":633,"Ġsun":634,"as":635,"Ġsw":636,",\"":637,"Ġch":638,"us":639,"pped":640,"Ġab":641,"ĠMia":642,"ank":643,"Ġget":644,"ucy":645,"Tim":646,"ump":647,"Th":648,"Ġlot":649,"ist":650,"oth":651,"Ġtried":652,"ap":653,"Ġknow":654,"Ġsays":655,"Ġgot":656,"ited":657,"Ġwho":658,"Ġkne":659,"ust":660,"Ġmany":661,"nder":662,"Ġint":663,"Ġabout":664,"Lily":665,"Ġpret":666,"Ġdec":667,"Ġany":668,"Ġred":669,"ĠD":670,"ive":671,"Ġknew":672,"ace":673,"ous":674,"Ġmore":675,"ise":676,"Ġcare":677,"ally":678,"Ġpic":679,"au":680,"qu":681,"Ġhug":682,"ĠLucy":683,"Ġlearned":684,"Ġpo":685,"Ġwater":686,"fter":687,"Ġv":688,"Ġbecame":689,"Ġbest":690,"ause":691,"Ġop":692,"Ġgre":693,"Ġexc":694,"urp":695,"ways":696,"âĢ":697,"Ġoutside":698,"Ġlaughed":699,"Ġlook":700,"Ġalways":701,"Ġdecid":702,"Ġshow":703,"Ġun":704,"ant":705,"ĠBob":706,"Ġroom":707,"fe":708,"Ġdecided":709,"Ġho":710,"Ġbecause":711,"ĠSo":712,"Ġinto":713,"Ġeat":714,"ite":715,"Ġjump":716,"ĠAnd":717,"Ġpe":718,"Ġboth":719,"ers":720,"ĠMom":721,"Ġdad":722,"They":723,"udd":724,"Ġke":725,"Ġone":726,"nn":727,"Ġthis":728,"Ġexcited":729,"Ġfast":730,"Ġnice":731,"ĠE":732,"Ġfeel":733,"Tom":734,"Yes":735,"Ġrun":736,"Ġlong":737,"Ġtold":738,"Ġsk":739,"Ġam":740,"urpr":741,"our":742,"Ġinside":743,"ull":744,"Ġtr":745,"Ġsurpr":746,"Ġmo":747,"ink":748,"Ġpretty":749,"iny":750,"Ġsor":751,"Wh":752,"Ġtake":753,"og":754,"Ġsl":755,"Ġeach":756,"Ġgave":757,"Ġmuch":758,"Ġgra":759,"lew":760,"nna":761,"Ġrock":762,"Ġhow":763,"Ġstr":764,"ara":765,"imal":766,"Ġanimal":767,"ged":768,"Ġneed":769,"Ġthan":770,"But":771,"ven":772,"etter":773,"Ġtow":774,"Ġor":775,"ĠC":776,"Ġunder":777,"ess":778,"Ġold":779,"Ġsorry":780,"ge":781,"ised":782,"ro":783,"urt":784,"Ġcle":785,"Ġfish":786,"Ġwalked":787,"Ġclo":788,"and":789,"Ġbear":790,"ft":791,"ase":792,"ast":793,"Ġhand":794,"urn":795,"ĠWe":796,"Ġkind":797,"ĠHis":798,"Ġte":799,"here":800,"Ġhappened":801,"Ġjust":802,"Ġflow":803,"Ġfood":804,"Ġlist":805,"Ġdidn":806,"Ġanimals":807,"Ġhig":808,"pl":809,"Ġnear":810,"Ġwat":811,"Ġide":812,"Ġtry":813,"ched":814,"Ġsky":815,"ine":816,"Ġsn":817,"ving":818,"Ġfi":819,"rom":820,"Ġus":821,"Ġidea":822,"Ġbetter":823,"ĠAmy":824,"Ġbug":825,"Ġheard":826,"gry":827,"Ġits":828,"Ġtw":829,"Ġlet":830,"pec":831,"ate":832,"able":833,"ff":834,"Ġen":835,"Ġcareful":836,"Ġshare":837,"ex":838,"Ġif":839,"Thank":840,"Mom":841,"Ġfly":842,"Ġstor":843,"ial":844,"Ġflew":845,"more":846,"Ġanymore":847,"ĠTh":848,"Ġspec":849,"Ġspecial":850,"ion":851,"Ġcom":852,"Ġlots":853,"Ġnever":854,"Ġby":855,"lf":856,"ream":857,"Ġdan":858,"Ġbu":859,"Ġfo":860,"Ġwind":861,"Ġdon":862,"Ġtal":863,"Ġclean":864,"ort":865,"Ġgr":866,"Ġlove":867,"rm":868,"ber":869,"Ġend":870,"ĠThen":871,"ople":872,"Ġeven":873,"Ġmag":874,"Ġhard":875,"Ġshiny":876,"udden":877,"Ġfore":878,"Ġover":879,"Ġcake":880,"ak":881,"Ġbook":882,"Ġcol":883,"Ġturn":884,"Ġfam":885,"Ġbad":886,"Ġsafe":887,"Ġafter":888,"ady":889,"ĠAnna":890,"uddenly":891,"Ġpeople":892,"Ġproud":893,"ĠEvery":894,"Ġsurprised":895,"pected":896,"Let":897,"Ġhigh":898,"Ġcu":899,"Ġhurt":900,"Ġcome":901,"imb":902,"arden":903,"Ġdoor":904,"Ġgarden":905,"bb":906,"Ġground":907,"Ġopened":908,"Ġpicked":909,"Ġloud":910,"Ġclimb":911,"expected":912,"Ġunexpected":913,"Ġgl":914,"Ġche":915,"ild":916,"Ġim":917,"As":918,"Ġgive":919,"Ġway":920,"ail":921,"'m":922,"Ġthanked":923,"Ġcolor":924,"Ġblue":925,"Ġstill":926,"Ġever":927,"Ġhugged":928,"ĠFrom":929,"Ġcall":930,"Ġfar":931,"ip":932,"ĠHer":933,"ĠSara":934,"ĠWhen":935,"No":936,"Ġoff":937,"Ġmagic":938,"iz":939,"ough":940,"age":941,"ummy":942,"ĠK":943,"Ġjumped":944,"Ġshould":945,"Ġfamily":946,"Ġpar":947,"ool":948,"Ġkid":949,"Ġsmile":950,"hes":951,"uff":952,"Ġplace":953,"kay":954,"Ġwalk":955,"Ġnow":956,"ct":957,"ĠIn":958,"Ġgreat":959,"em":960,"ture":961,"Ġqu":962,"les":963,"Ġstrong":964,"Ġstay":965,"Ġunt":966,"Ġsto":967,"aut":968,"Ġforest":969,"ane":970,"Ġbra":971,"itty":972,"ĠP":973,"Ġfrog":974,"Ġbro":975,"Ġuntil":976,"oon":977,"Ġbeaut":978,"dy":979,"Ġsqu":980,"Ġstick":981,"xt":982,"Ġnext":983,"Ġboat":984,"lease":985,"ning":986,"Ġhappily":987,"Ġlisten":988,"aking":989,"Ġkids":990,"Ġtra":991,"ies":992,"iful":993,"Ġbeautiful":994,"Ġapp":995,"th":996,"Ġhelped":997,"Ġdra":998,"Ġshowed":999,"Ġclos":1000,"be":1001,"Ġimp":1002,"Ġstory":1003,"unny":1004,"oy":1005,"Ġwhile":1006,"Ġtown":1007,"rel":1008,"pt":1009,"Ġrain":1010,"ress":1011,"Ġpicture":1012,"Ġbeing":1013,"Ġrem":1014,"It":1015,"Ġeveryone":1016,"ary":1017,"ree":1018,"Ġmor":1019,"Ġhat":1020,"Ġcalled":1021,"Ġmet":1022,"Ġstopped":1023,"Ġad":1024,"Ġgame":1025,"Now":1026,"He":1027,"Can":1028,"Ġangry":1029,"ger":1030,"uffy":1031,"Ġopen":1032,"Ġwo":1033,"Ġtruck":1034,"Ġkeep":1035,"Ġsoft":1036,"When":1037,"Ġcry":1038,"Ġyummy":1039,"Ġlost":1040,"Ġbed":1041,"ĠLet":1042,"ĠSally":1043,"Ġwarm":1044,"by":1045,"vent":1046,"Ġbrave":1047,"Ġmouse":1048,"ĠWh":1049,"Ġate":1050,"ĠKitty":1051,"ished":1052,"Ġde":1053,"fore":1054,"Ġdoll":1055,"so":1056,"Ġcouldn":1057,"Ġwatch":1058,"Ġleave":1059,"Ġalso":1060,"dded":1061,"Ġfell":1062,"Ġgreen":1063,"Ġface":1064,"Ġtwo":1065,"gan":1066,"iss":1067,"Ġflowers":1068,"bit":1069,"What":1070,"ĠR":1071,"ble":1072,"Ġnoise":1073,"abbit":1074,"irst":1075,"owl":1076,"Ġwhere":1077,"az":1078,"ock":1079,"Ġsoon":1080,"self":1081,"Ġslide":1082,"Ġrabbit":1083,"Ġhole":1084,"luffy":1085,"Ġbefore":1086,"irrel":1087,"Ġpus":1088,"ired":1089,"Ġsat":1090,"illy":1091,"Ġhear":1092,"Ġuse":1093,"âĢĿ":1094,"Hi":1095,"Ġpa":1096,"Ġkept":1097,"âĢľ":1098,"That":1099,"Ġsquirrel":1100,"ear":1101,"Then":1102,"ma":1103,"Ġnodded":1104,"Ġexpl":1105,"Ġstore":1106,"Ġcook":1107,"Ġhands":1108,"Look":1109,"Ġbirds":1110,"Ġpain":1111,"Ġgoing":1112,"Ġfunny":1113,"Ġhaving":1114,"day":1115,"Ġsing":1116,"aybe":1117,"uch":1118,"Ġey":1119,"aug":1120,"Ġcatch":1121,"aught":1122,"ĠCan":1123,"ĠFluffy":1124,"uit":1125,"Ġyell":1126,"Ġthink":1127,"leep":1128,"Ġcra":1129,"Ġfin":1130,"Ben":1131,"Ġbre":1132,"Ġfix":1133,"Ġtired":1134,"Ġbunny":1135,"Ġused":1136,"Ġlooking":1137,"Ġbus":1138,"ange":1139,"air":1140,"Ġwork":1141,"Ġwr":1142,"Ġour":1143,"Ġpull":1144,"We":1145,"Ġthr":1146,"thing":1147,"ĠNow":1148,"Ġwait":1149,"Ġkit":1150,"Ġsound":1151,"ting":1152,"Ġjo":1153,"Ġhas":1154,"ĠG":1155,"Ġmean":1156,"Ġpond":1157,"ember":1158,"Ġbeh":1159,"Ġdr":1160,"Ġsunny":1161,"led":1162,"Ġothers":1163,"Ġask":1164,"ng":1165,"chen":1166,"Ġkitchen":1167,"Ġtalk":1168,"Ġflo":1169,"Ġdif":1170,"rew":1171,"Ġpie":1172,"Ġhead":1173,"ĠJo":1174,"Ġreal":1175,"Ġfirst":1176,"Ġtri":1177,"Ġmommy":1178,"Ġeyes":1179,"ello":1180,"Ġimport":1181,"Hello":1182,"Ġfav":1183,"ath":1184,"joy":1185,"Ġz":1186,"Ġremember":1187,"Ġright":1188,"Ġflower":1189,"Ġcon":1190,"Ġmess":1191,"Ġparty":1192,"Ġcold":1193,"ĠDo":1194,"Ġvo":1195,"Ġswe":1196,"ious":1197,"Ġsand":1198,"ĠâĢľ":1199,"ac":1200,"orn":1201,"Ġrace":1202,"Ġcuri":1203,"imes":1204,"Ġimportant":1205,"Ġduck":1206,"Ġmoral":1207,"Ġshared":1208,"zy":1209,"ount":1210,"ĠJack":1211,"Ġice":1212,"Ġokay":1213,"Ġadvent":1214,"Ġworked":1215,"llow":1216,"At":1217,"Ġenjoy":1218,"Ġdress":1219,"Ġbright":1220,"Ġmaking":1221,"Ġcurious":1222,"Ġown":1223,"Ġtall":1224,"Ġdir":1225,"Ġhop":1226,"reed":1227,"Ġhid":1228,"Ġfavor":1229,"Ġri":1230,"hn":1231,"Ġsleep":1232,"Ġdis":1233,"Wow":1234,"Ġfavorite":1235,"Ġthing":1236,"Ġbegan":1237,"Ġmon":1238,"Ġbag":1239,"Ġhill":1240,"Don":1241,"Ġcla":1242,"Ġdraw":1243,"Ġrest":1244,"Ġhere":1245,"Ġyard":1246,"Ġtell":1247,"ĠFin":1248,"ster":1249,"Ġwatched":1250,"que":1251,"Ġfollow":1252,"Ġmove":1253,"Ġbel":1254,"ect":1255,"Ġcut":1256,"Ġnight":1257,"Ġagreed":1258,"Ġpick":1259,"co":1260,"Ġblock":1261,"Ġhun":1262,"aper":1263,"lly":1264,"Ġstop":1265,"Ġbehind":1266,"ĠThis":1267,"Ġsurprise":1268,"ied":1269,"Ġsho":1270,"Ġhot":1271,"After":1272,"Ġtable":1273,"Ġgrass":1274,"Ġworry":1275,"Ġdark":1276,"Ġtrees":1277,"Ġvoice":1278,"Ġwalking":1279,"fere":1280,"Ġfloor":1281,"Ġfarm":1282,"Ġlion":1283,"Ġtop":1284,"Ġdiffere":1285,"Ġplease":1286,"Ġru":1287,"Ġsong":1288,"Ġbutter":1289,"Ġtail":1290,"Ġsweet":1291,"Max":1292,"Ġshout":1293,"Ġcolors":1294,"Ġread":1295,"ĠDad":1296,"Ġlady":1297,"Ġforg":1298,"isy":1299,"Ġleaves":1300,"Ġcloser":1301,"ign":1302,"Ġcars":1303,"Ġturned":1304,"Ġneeded":1305,"Ġtast":1306,"Why":1307,"aring":1308,"Ġwood":1309,"Ġcried":1310,"Ġdifferent":1311,"Ġlaugh":1312,"Ġdel":1313,"Ġpiece":1314,"âĢĻ":1315,"ered":1316,"ĠMr":1317,"Ġroll":1318,"Ġadventure":1319,"Ġfire":1320,"Ġdoes":1321,"ike":1322,"Ġcr":1323,"Ġhungry":1324,"Ġhair":1325,"ĠSuddenly":1326,"Ġpaper":1327,"Ġfeeling":1328,"Ġyellow":1329,"Ġfull":1330,"bo":1331,"Ġprin":1332,"Sue":1333,"Ġtouch":1334,"ĠAs":1335,"Anna":1336,"Sam":1337,"Ġwet":1338,"Ġfriendly":1339,"Ġper":1340,"oom":1341,"ken":1342,"cked":1343,"ached":1344,"Ġswing":1345,"Ġfruit":1346,"ient":1347,"Ġbroken":1348,"Ġready":1349,"bye":1350,"ppy":1351,"Ġprom":1352,"ĠThat":1353,"Ġanother":1354,"Ġlight":1355,"Ġpretend":1356,"Ġdance":1357,"ater":1358,"Ġclimbed":1359,"where":1360,"Ġlistened":1361,"ĠBobo":1362,"Ġdanc":1363,"Ġrunning":1364,"Ġonly":1365,"Ġplan":1366,"Ġgone":1367,"Ġswim":1368,"bbed":1369,"Suddenly":1370,"sh":1371,"Ġtrain":1372,"ila":1373,"ndma":1374,"Sara":1375,"ĠJane":1376,"Ġclose":1377,"av":1378,"She":1379,"Ġsmell":1380,"So":1381,"aby":1382,"Ġamaz":1383,"Ġhold":1384,"Ġblocks":1385,"Ġwonder":1386,"ĠTimmy":1387,"Ġrepl":1388,"ĠAll":1389,"Ġbutterf":1390,"Ġsees":1391,"Ġreached":1392,"Ġwall":1393,"Ġpu":1394,"oney":1395,"red":1396,"Ġslow":1397,"Ġhelping":1398,"Ġdri":1399,"Ġcream":1400,"Ġcool":1401,"Ġglad":1402,"af":1403,"Ġant":1404,"Ġless":1405,"Ġbeen":1406,"Ġgoodbye":1407,"Ġac":1408,"Ġfight":1409,"ather":1410,"Mia":1411,"Ġpushed":1412,"iced":1413,"Ġfair":1414,"Ġmust":1415,"Ġhide":1416,"Ġmoment":1417,"Ġwindow":1418,"ĠO":1419,"Ġsit":1420,"Ġballoon":1421,"Ġsnow":1422,"Ġchild":1423,"Ġexplore":1424,"ĠEveryone":1425,"Ġar":1426,"Ġwished":1427,"Ġbaby":1428,"Ġdone":1429,"Ġwag":1430,"Ġste":1431,"Ġbuy":1432,"Ġstuck":1433,"Ġperf":1434,"Ġthank":1435,"Ġmight":1436,"icy":1437,"Ġname":1438,"ized":1439,"Ġtrying":1440,"Ġbit":1441,"Ġcoming":1442,"Ġbar":1443,"Ġquick":1444,"Ġfall":1445,"Ġapple":1446,"ash":1447,"Ġscary":1448,"Ġlooks":1449,"Ġbuild":1450,"Ġdoing":1451,"Ġwin":1452,"Ġunderst":1453,"aisy":1454,"Ġdin":1455,"Ġdream":1456,"Ġdirty":1457,"Ġheld":1458,"ames":1459,"Ġbooks":1460,"Ġmar":1461,"In":1462,"Ġbutterfly":1463,"Ġleft":1464,"Ġshouted":1465,"Ġcount":1466,"Ġreplied":1467,"avy":1468,"Ġreach":1469,"Ġtiny":1470,"Ġthrough":1471,"ott":1472,"Ġdro":1473,"Ġwhy":1474,"Ġair":1475,"Ġbran":1476,"Ġland":1477,"key":1478,"Ġthree":1479,"Ġpulled":1480,"Ġspl":1481,"Ġgrow":1482,"Ġtreat":1483,"Ġbrother":1484,"Ġwise":1485,"Ġwoods":1486,"Ġsure":1487,"'re":1488,"Ġchair":1489,"ix":1490,"Ġmat":1491,"ins":1492,"Ġseen":1493,"Ġpink":1494,"Ġclapped":1495,"Ġplant":1496,"ely":1497,"Ġowl":1498,"Ġcup":1499,"ield":1500,"Ġsometimes":1501,"andy":1502,"Ġfill":1503,"Ġcloud":1504,"ask":1505,"Ġswam":1506,"outh":1507,"Ġjob":1508,"Ġcolorful":1509,"Ġremembered":1510,"Ġbigger":1511,"Ġnest":1512,"Ġmouth":1513,"pe":1514,"Okay":1515,"Ġlesson":1516,"Ġjoin":1517,"Ġcre":1518,"ph":1519,"oup":1520,"room":1521,"ĠThere":1522,"art":1523,"Ġwaved":1524,"uddy":1525,"Ġgrabbed":1526,"Ġstayed":1527,"Oh":1528,"Ġpaint":1529,"This":1530,"Ġclot":1531,"Ġcont":1532,"Ġclothes":1533,"Ġve":1534,"ower":1535,"ĠAfter":1536,"Ġwaited":1537,"Ġquickly":1538,"cle":1539,"Ġword":1540,"Ġbroke":1541,"ucky":1542,"Ġgames":1543,"Ġcast":1544,"Ġblew":1545,"Ġgent":1546,"ĠMommy":1547,"Jo":1548,"Ġenjoyed":1549,"Ġnoticed":1550,"ries":1551,"ation":1552,"Ġset":1553,"Ġlikes":1554,"Ġpictures":1555,"ton":1556,"de":1557,"Ġsea":1558,"Ġheavy":1559,"Ġmus":1560,"Ġalone":1561,"Ġgif":1562,"asure":1563,"Ġanything":1564,"Ġspot":1565,"Ġmiss":1566,"Ġhopped":1567,"Ġworld":1568,"Ġturns":1569,"orm":1570,"Ġyear":1571,"der":1572,"Ġbott":1573,"Ġpat":1574,"Ġpot":1575,"Ġpen":1576,"lc":1577,"Her":1578,"Ġmix":1579,"Ġarm":1580,"Ġbike":1581,"Ġtight":1582,"Ġeverywhere":1583,"Lucy":1584,"Ġwon":1585,"Ġtower":1586,"Ġthrew":1587,"Ġhimself":1588,"Ġfollowed":1589,"ĠBuddy":1590,"Ġride":1591,"man":1592,"less":1593,"Ġju":1594,"Ġje":1595,"Bob":1596,"amp":1597,"ape":1598,"Ġcomp":1599,"Ġkey":1600,"row":1601,"\".":1602,"Ġwhite":1603,"ctor":1604,"Ġwrong":1605,"ĠDaisy":1606,"Ġmakes":1607,"ĠWhat":1608,"Ġbreak":1609,"Ġblack":1610,"arent":1611,"ee":1612,"ner":1613,"Spot":1614,"Do":1615,"Ġdeep":1616,"thy":1617,"Ġmusic":1618,"Ġpol":1619,"Ġdelic":1620,"cess":1621,"ued":1622,"Ġforgot":1623,"Ġbee":1624,"Ġparent":1625,"Ġcastle":1626,"ves":1627,"olly":1628,"Ġem":1629,"iet":1630,"Ġwear":1631,"Ġhit":1632,"ister":1633,"oun":1634,"Ġquiet":1635,"Ġround":1636,"ance":1637,"Ġstu":1638,"Ġdanced":1639,"Ġvis":1640,"ully":1641,"Ġwants":1642,"Ġleaf":1643,"Ġmonster":1644,"Ġnap":1645,"ĠJohn":1646,"Ġunderstand":1647,"ang":1648,"Ġbowl":1649,"os":1650,"rot":1651,"ren":1652,"Ġbor":1653,"Ġtalked":1654,"itten":1655,"Ġdry":1656,"Ġfaster":1657,"Ġcookies":1658,"Ġbrought":1659,"fully":1660,"Ġleg":1661,"ross":1662,"Ġmum":1663,"zz":1664,"Ġside":1665,"ts":1666,"From":1667,"Ġsign":1668,"Ġsmart":1669,"ĠInside":1670,"cy":1671,"Ġrocks":1672,"Ġsomeone":1673,"His":1674,"Ġpoin":1675,"Ġsec":1676,"Ġsharing":1677,"Ġfox":1678,"Ġwell":1679,"Ġres":1680,"Ġrel":1681,"Ġhappen":1682,"Ġbutton":1683,"Ġbranch":1684,"ĠLila":1685,"Ġreally":1686,"Ġfinished":1687,"ence":1688,"ards":1689,"Ġdinner":1690,"Ġsister":1691,"Ġflying":1692,"eddy":1693,"Ġcontin":1694,"Ġworried":1695,"Ġele":1696,"ĠTo":1697,"Ġvisit":1698,"ĠMaybe":1699,"Ġbeach":1700,"Ġque":1701,"Ġsecret":1702,"Ġel":1703,"Ġking":1704,"ĠSarah":1705,"John":1706,"gy":1707,"Ġtoday":1708,"Ġperfect":1709,"Ġriver":1710,"Ġeverything":1711,"Ġsilly":1712,"Ġshin":1713,"Ġdanger":1714,"ipp":1715,"ĠJoe":1716,"Ġchildren":1717,"Ġgu":1718,"ĠSoon":1719,"Ġfield":1720,"Ġfilled":1721,"Ġfur":1722,"Ġelse":1723,"Ġsmiles":1724,"Ġwelc":1725,"ĠAt":1726,"Ġwish":1727,"While":1728,"Ġsang":1729,"ĠEm":1730,"Ġgi":1731,"ze":1732,"Ġpudd":1733,"Ġsnack":1734,"Ġeating":1735,"Ġrealized":1736,"Ġpieces":1737,"Ġpromised":1738,"ord":1739,"Ġspr":1740,"Ġpig":1741,"Ġfree":1742,"Ġcontinued":1743,"Ġbite":1744,"ead":1745,"Ġparents":1746,"Ġcarefully":1747,"ated":1748,"Ġear":1749,"itting":1750,"Just":1751,"Ġjar":1752,"Maybe":1753,"Ġcow":1754,"Amy":1755,"Ġblank":1756,"Ġdrag":1757,"stead":1758,"Ġorange":1759,"Ġmud":1760,"Ġcrying":1761,"Ġblanket":1762,"Ġenough":1763,"Ġrolled":1764,"cket":1765,"Ġsoup":1766,"Ġsail":1767,"Ġpurp":1768,"imi":1769,"Ġyes":1770,"ale":1771,"Ġdrink":1772,"Ġsnake":1773,"ses":1774,"Ġboun":1775,"Ġpet":1776,"Ġcrab":1777,"Ġlaughing":1778,"Ġthrow":1779,"Ġfairy":1780,"Ġwords":1781,"Ġamazing":1782,"Ġbath":1783,"ich":1784,"Ġpurple":1785,"ĠZ":1786,"Ġwithout":1787,"ire":1788,"Ġbottle":1789,"ĠBilly":1790,"Ġgift":1791,"Ġgrandma":1792,"Fin":1793,"used":1794,"ons":1795,"Ġpast":1796,"Ġmoney":1797,"iver":1798,"fort":1799,"Ġmail":1800,"ĠGra":1801,"Ġbarked":1802,"Ġwagged":1803,"Ġatt":1804,"chool":1805,"Ġmonkey":1806,"Ġdoctor":1807,"unch":1808,"Ġbrown":1809,"Ġmoved":1810,"ises":1811,"Ġasks":1812,"Ġgetting":1813,"Ġclosed":1814,"Ġwhe":1815,"Ġwelcome":1816,"Ġsu":1817,"Ġcandy":1818,"Ġschool":1819,"Ġmorning":1820,"Ġowner":1821,"gg":1822,"Ġlon":1823,"Ġmother":1824,"Ġhigher":1825,"Ġsitting":1826,"Ġtreasure":1827,".âĢĿ":1828,"Ġsmo":1829,"!âĢĿ":1830,"Ġdangerous":1831,"Ġlonely":1832,"ĠCh":1833,"Ġliving":1834,"Ġapples":1835,"ush":1836,"Ġshop":1837,"ased":1838,"Ġstrange":1839,"vel":1840,"Ġshining":1841,"Ġroad":1842,"ere":1843,"Ġcreat":1844,"ĠTommy":1845,"una":1846,"Ġpaw":1847,"Ġra":1848,"ey":1849,"Ġshoes":1850,"Ġpre":1851,"ible":1852,"Ġ-":1853,"Ġstre":1854,"Ġtalking":1855,"althy":1856,"Ġcaught":1857,"Ġegg":1858,"ol":1859,"Ġpass":1860,"me":1861,"Ġlake":1862,"Ġruns":1863,"Ġbuck":1864,"Ġletter":1865,"Ġwings":1866,"Ġchee":1867,"fish":1868,"Ġmad":1869,"Ġfan":1870,"asket":1871,"Ġbasket":1872,"ass":1873,"Ġdragon":1874,"app":1875,"Mommy":1876,"set":1877,"cks":1878,"Ġstone":1879,"Ġthinks":1880,"Ġstand":1881,"Ġdelicious":1882,"Ġnose":1883,"Ġpuddle":1884,"Ġtom":1885,"ĠBl":1886,"ĠMimi":1887,"Ġbelie":1888,"Ġfarmer":1889,"Ġsame":1890,"Ġyears":1891,"board":1892,"Ġteddy":1893,"Ġbat":1894,"isk":1895,"itch":1896,"Ġmine":1897,"Ġsear":1898,"Ġcoat":1899,"ches":1900,"igh":1901,"Ġdays":1902,"Ġbring":1903,"Ġgentle":1904,"Ġfit":1905,"Ġstart":1906,"Ġfinally":1907,"Ġwhist":1908,"Ġcray":1909,"igg":1910,"Ġscream":1911,"Ġkite":1912,"Ġpill":1913,"phant":1914,"arm":1915,"Ġvill":1916,"Ġcho":1917,"Ġsinging":1918,"ella":1919,"sw":1920,"ined":1921,"Ġtasty":1922,"Ġph":1923,"Ġben":1924,"Ġtrou":1925,"Ġshell":1926,"Ġherself":1927,"Ġhoped":1928,"Ġansw":1929,"Ġwore":1930,"Ġswings":1931,"sy":1932,"Ġhor":1933,"Ġbelong":1934,"Please":1935,"Ġpush":1936,"Ġbush":1937,"iskers":1938,"Ġcarrot":1939,"Ġarri":1940,"aughty":1941,"Ġteach":1942,"bow":1943,"ract":1944,"Ġnaughty":1945,"Ġelephant":1946,"Ġdropped":1947,"Ġshap":1948,"ier":1949,"Ġcoll":1950,"sc":1951,"Ġteac":1952,"emy":1953,"Ġwoke":1954,"ball":1955,"Ġpile":1956,"Ġhiding":1957,"Ġcour":1958,"isa":1959,"erry":1960,"Ġtouc":1961,"Ġmin":1962,"Ġpuppy":1963,"'ll":1964,"Ġseem":1965,"llie":1966,"Ġtwins":1967,"ama":1968,"Ġlunch":1969,"Ġbow":1970,"Ġsack":1971,"Ġpers":1972,"Ġcourse":1973,"Ġcheered":1974,"Ġshapes":1975,"ĠJen":1976,"Ġgrew":1977,"fused":1978,"Ġrope":1979,"Ġvillage":1980,"irth":1981,"irthday":1982,"Ġjuice":1983,"ipped":1984,"Ġrainbow":1985,"Ġspin":1986,"OK":1987,"Jack":1988,"Ġshook":1989,"Ġspoon":1990,"Ġbench":1991,"Ġstreet":1992,"Ġfence":1993,"Ġcute":1994,"ĠFred":1995,"Ġrob":1996,"Ġnut":1997,"Ġcheese":1998,"Ġprob":1999,"Ġtouched":2000,"idge":2001,"col":2002,"Ġjoy":2003,"ĠWhiskers":2004,"Ġarrived":2005,"Ġseed":2006,"Ġwar":2007,"Ġteacher":2008,"Ġcorn":2009,"Good":2010,"Ġable":2011,"Ġforever":2012,"Ġbell":2013,"Ġfew":2014,"Ġcarry":2015,"Ġmost":2016,"Ġplane":2017,"ĠBlue":2018,"lem":2019,"Ġeas":2020,"Ġsounds":2021,"lla":2022,"Ġdes":2023,"Ġspo":2024,"Ġproblem":2025,"Ġbirthday":2026,"Ġpower":2027,"Ġinc":2028,"umb":2029,"br":2030,"Ġbugs":2031,"ilk":2032,"Ġwonderful":2033,"Ġdolls":2034,"Ġbusy":2035,"ato":2036,"irp":2037,"eb":2038,"Ġwra":2039,"Ġpromise":2040,"ĠThank":2041,"Ġfeels":2042,"ian":2043,"eter":2044,"ĠEmma":2045,"Ġbread":2046,"Finally":2047,"Ġneck":2048,"Ġmilk":2049,"Ġrobot":2050,"Ġrec":2051,"Ġshy":2052,"ountain":2053,"Ġkiss":2054,"irt":2055,"Ġheart":2056,"Ġband":2057,"Ġcave":2058,"Ġpocket":2059,"ub":2060,"Ġhelpful":2061,"gly":2062,"Ġslowly":2063,"Ġbelieve":2064,"Ġshake":2065,"umpy":2066,"eared":2067,"Ġpatient":2068,"Ġpop":2069,"Ġob":2070,"arp":2071,"Ġlive":2072,"Ġstorm":2073,"Ġholding":2074,"Ġugly":2075,"Ġtowards":2076,"Ġupset":2077,"Ġturt":2078,"Ġshr":2079,"adow":2080,"Ġcover":2081,"Ġkitten":2082,"ost":2083,"ĠRemy":2084,"Ġsharp":2085,"Ġdisapp":2086,"Ġstories":2087,"Ġsuc":2088,"Ġhoney":2089,"ove":2090,"ĠBella":2091,"read":2092,"Ġnoises":2093,"ĠLe":2094,"Ġcir":2095,"Ġballs":2096,"Ġspark":2097,"Ġgray":2098,"Ġdist":2099,"Ġdirt":2100,"oggy":2101,"Ġlate":2102,"Ġdriver":2103,"Ġseat":2104,"Ġbucket":2105,"Ġmeet":2106,"Ġyoung":2107,"Ġamazed":2108,"Ġturtle":2109,"alm":2110,"Ġspid":2111,"Ġtreats":2112,"Ġmagical":2113,"unt":2114,"ator":2115,"Ġglow":2116,"Ġseek":2117,"Ġzoom":2118,"Ġlem":2119,"Ġsandw":2120,"fortable":2121,"umber":2122,"Ġtrip":2123,"Ġmist":2124,"ourn":2125,"Ġsplas":2126,"Ġmark":2127,"Ġjourn":2128,"Ġfold":2129,"Ġmach":2130,"Ġpuzz":2131,"Ġpart":2132,"ling":2133,"Ġhorse":2134,"Ġorgan":2135,"Ġwild":2136,"Ġprincess":2137,"pping":2138,"oose":2139,"Ġcookie":2140,"Sure":2141,"ens":2142,"Ġhugs":2143,"ĠMark":2144,"Ġtaking":2145,"ung":2146,"Ġwheel":2147,"epend":2148,"Ġcloth":2149,"ĠLisa":2150,"Ġsug":2151,"Ġinstead":2152,"Ġbubb":2153,"Ġstring":2154,"Ġnet":2155,"Ġdrove":2156,"iling":2157,"Ġrude":2158,"Ġhuge":2159,"Ġcoin":2160,"Ġstars":2161,"Ġfighting":2162,"ĠJim":2163,"Be":2164,"Ġspicy":2165,"Ġlucky":2166,"Of":2167,"Ġcraw":2168,"Hey":2169,"Ġbone":2170,"Ġinv":2171,"ĠGrandma":2172,"ors":2173,"not":2174,"Ġca":2175,"pper":2176,"Ġforget":2177,"up":2178,"Ġdi":2179,"aur":2180,"Ġsal":2181,"ĠFinally":2182,"Ġcannot":2183,"Ġwhistle":2184,"Ġcard":2185,"Ġsick":2186,"Ġpath":2187,"Ġcou":2188,"Ġspider":2189,"Ġwide":2190,"Lila":2191,"Ġfoot":2192,"Ġsnowman":2193,"Ġlife":2194,"Ġsongs":2195,"Ġpillow":2196,"ize":2197,"ular":2198,"ĠJust":2199,"Later":2200,"est":2201,"ĠAnn":2202,"ert":2203,"Ġfixed":2204,"Ġgiant":2205,"oph":2206,"rill":2207,"Ġnod":2208,"Ġboss":2209,"Ġlast":2210,"Ġcomes":2211,"Ġjoke":2212,"Ġmoon":2213,"Ġtaste":2214,"den":2215,"Ġmachine":2216,"Ġgrumpy":2217,"Ġwave":2218,"Ġthin":2219,"Ġdrive":2220,"Ġcart":2221,"Ġash":2222,"Ġser":2223,"Ġgrab":2224,"Ġpeace":2225,"lower":2226,"Ġdaddy":2227,"ĠOn":2228,"ĠLeo":2229,"ery":2230,"Ġsel":2231,"Ġshelf":2232,"Ġhidden":2233,"erest":2234,"Ġsuddenly":2235,"Ġwasn":2236,"Ġwrite":2237,"Ġlanded":2238,"Ġconfused":2239,"Ġring":2240,"Ġchange":2241,"Ġworm":2242,"Ġinterest":2243,"Ġchased":2244,"oop":2245,"Ġfruits":2246,"Ġsour":2247,"ity":2248,"Ġmyster":2249,"Ġbark":2250,"Ġrad":2251,"Ġsmooth":2252,"ĠCome":2253,"Ġadventures":2254,"Ġval":2255,"Ġstepped":2256,"Ġfle":2257,"ope":2258,"Ġoven":2259,"Ġtakes":2260,"Ġmissed":2261,"Ġselfish":2262,"kin":2263,"Ġsheep":2264,"Ġmessy":2265,"To":2266,"Ġacross":2267,"Ġent":2268,"Ġexp":2269,"to":2270,"Ġce":2271,"Ġlater":2272,"elly":2273,"ĠN":2274,"ife":2275,"Ġsticks":2276,"Ġtie":2277,"St":2278,"ever":2279,"ĠLuna":2280,"Ġbought":2281,"Ġstep":2282,"Ġdrew":2283,"Ġtea":2284,"pect":2285,"Ġban":2286,"irpy":2287,"box":2288,"?âĢĿ":2289,"Ġwash":2290,"Ġlay":2291,"Ġpour":2292,"Ġbeak":2293,"ose":2294,"Ġjog":2295,"Ġgrate":2296,"Ġducks":2297,"Ġspe":2298,"Ġlegs":2299,"ugg":2300,"Ġfil":2301,"ĠBu":2302,"Ġemp":2303,"mer":2304,"Ġhope":2305,"Ġempty":2306,"Ġslid":2307,"Ġfeather":2308,"Ġsleepy":2309,"Ġdrum":2310,"amed":2311,"ars":2312,"eth":2313,"Ġzoo":2314,"Ġpan":2315,"Ġphone":2316,"Ġgrateful":2317,"Ġfing":2318,"ions":2319,"Ġlemon":2320,"let":2321,"ĠCat":2322,"Ġclever":2323,"ĠMolly":2324,"Ġsmelly":2325,"Ġimag":2326,"Ġsplash":2327,"Ġinteresting":2328,"ĠJill":2329,"Ġsave":2330,"Ġchick":2331,"Ġcalm":2332,"Ġmed":2333,"Ġwatching":2334,"Soon":2335,"izzy":2336,"izz":2337,"Ġplate":2338,"Ġign":2339,"yard":2340,"Ġclouds":2341,"Ġbanan":2342,"Ġline":2343,"Ġfaces":2344,"Ġba":2345,"Ġact":2346,"Ġlift":2347,"Ġthough":2348,"Ġwolf":2349,"Ġbackyard":2350,"wel":2351,"Ġseemed":2352,"Ġdogs":2353,"Ġspray":2354,"Come":2355,"Ġprot":2356,"Ġwhole":2357,"Ġmot":2358,"Ġfancy":2359,"ĠDaddy":2360,"Ġquest":2361,"Ġarms":2362,"Ġpuzzle":2363,"Ġhealthy":2364,"Ġsupp":2365,"ward":2366,"Ġfinish":2367,"erly":2368,"Ġalong":2369,"llo":2370,"Ġrocket":2371,"Ġexplain":2372,"dge":2373,"Ġeasy":2374,"Ġjewel":2375,"ont":2376,"Ġpract":2377,"Ġjelly":2378,"ĠChirpy":2379,"Ġtid":2380,"Ġfake":2381,"Ġcrayons":2382,"Ġwondered":2383,"Ġmaybe":2384,"Ġscar":2385,"Ġship":2386,"Ġnothing":2387,"onest":2388,"Ġemb":2389,"iger":2390,"Ġpool":2391,"Ġlonger":2392,"Ġanyone":2393,"ĠBe":2394,"ually":2395,"ĠJerry":2396,"Ġfront":2397,"Ġworking":2398,"Ġgives":2399,"irr":2400,"Ġpack":2401,"Ġsuch":2402,"ĠBunny":2403,"ocked":2404,"ment":2405,"Ġbossy":2406,"ĠDoggy":2407,"Ġtrouble":2408,"Ġsmelled":2409,"Ġsaved":2410,"Ġpin":2411,"rass":2412,"Ġneigh":2413,"arrass":2414,"iting":2415,"Ġhonest":2416,"Ġav":2417,"arge":2418,"Ġembarrass":2419,"Ġvan":2420,"Ġforgive":2421,"Ġtidy":2422,"Ġweak":2423,"urse":2424,"Ġputs":2425,"unk":2426,"Ġkick":2427,"Ġshirt":2428,"ĠWith":2429,"Ġmind":2430,"ĠOllie":2431,"Ġneighb":2432,"Ġplants":2433,"Ġsol":2434,"ĠMomo":2435,"Ġgently":2436,"Ġcozy":2437,"orrow":2438,"ming":2439,"Ġexplor":2440,"sp":2441,"Ġmistake":2442,"Ġyog":2443,"oc":2444,"oomy":2445,"Ġpointed":2446,"Ġlad":2447,"Ġaf":2448,"Ġstood":2449,"ork":2450,"Ġonto":2451,"Ġjumping":2452,"Ġwaiting":2453,"Ġprince":2454,"Ġcross":2455,"Ġlock":2456,"Ġcheer":2457,"Ġqueen":2458,"ĠWhy":2459,"ĠMary":2460,"Ġwing":2461,"ones":2462,"we":2463,"Ġlarge":2464,"Ġlovely":2465,"ult":2466,"Ġsur":2467,"Ġret":2468,"And":2469,"Ġdeer":2470,"Ġchew":2471,"Ġcouch":2472,"Ġbal":2473,"Ġstret":2474,"aughter":2475,"era":2476,"ĠTheir":2477,"Ġplaces":2478,"ĠMy":2479,"Ġladder":2480,"oof":2481,"Ġreturn":2482,"raid":2483,"Ġants":2484,"Ġdish":2485,"Ġafraid":2486,"Ġcleaned":2487,"Ġtomorrow":2488,"Ġbuilding":2489,"Ġsandwich":2490,"Ġperson":2491,"Sally":2492,"ned":2493,"Ġpretended":2494,"Ġbounce":2495,"Ġwip":2496,"gest":2497,"Ġmatch":2498,"Ġrich":2499,"uce":2500,"Ġpizz":2501,"Ġgather":2502,"Ġsearch":2503,"Ġboring":2504,"oman":2505,"ĠSomet":2506,"Ġteeth":2507,"Ġhum":2508,"Kitty":2509,"My":2510,"aced":2511,"Ġdaughter":2512,"Ġwoman":2513,"Ġscarf":2514,"Ġgoes":2515,"ĠTogether":2516,"Ġlaw":2517,"Ġstra":2518,"Ġswimming":2519,"Ġfurry":2520,"Ġsplashed":2521,"Ġpri":2522,"Ġloves":2523,"Ġtrue":2524,"Ġscreamed":2525,"Ġlazy":2526,"Ġgen":2527,"Ġanswer":2528,"Ġnumber":2529,"Ġeag":2530,"Ġashamed":2531,"Ġpizza":2532,"aw":2533,"Ġappeared":2534,"Ġfear":2535,"Ġnearby":2536,"Ġpowerful":2537,"Ġflag":2538,"ĠSt":2539,"Ġhang":2540,"vous":2541,"Ġclown":2542,"ek":2543,"Ġchase":2544,"Ġmotor":2545,"Ġwand":2546,"ĠTV":2547,"Ġrub":2548,"Ġsuccess":2549,"Ġchocol":2550,"ĠIf":2551,"Ġcreative":2552,"Ġtrust":2553,"Ġwearing":2554,"Ġnoisy":2555,"Ġmatter":2556,"pa":2557,"Ġdig":2558,"Ġhello":2559,"Ġner":2560,"Ġtool":2561,"Ġsaf":2562,"ĠBird":2563,"ado":2564,"Ġnervous":2565,"elp":2566,"Ġtest":2567,"Ġsmiling":2568,"Ġsold":2569,"icked":2570,"oppy":2571,"osaur":2572,"Ġcircle":2573,"mb":2574,"Ġmap":2575,"Ġdrank":2576,"Ġclass":2577,"Ġtries":2578,"Ġchocolate":2579,"ĠPlease":2580,"Ġimpress":2581,"Ġknee":2582,"Ġgener":2583,"Ġdinosaur":2584,"Ġpolite":2585,"Ġmirr":2586,"ĠTiny":2587,"ĠBobby":2588,"Ġballoons":2589,"Ġgold":2590,"Ġrare":2591,"Ġprotect":2592,"Ġcand":2593,"Stop":2594,"Ġcarried":2595,"ĠGo":2596,"ensive":2597,"Ġap":2598,"Ġshadow":2599,"Ġmirror":2600,"ĠDon":2601,"Ġbald":2602,"Ġgun":2603,"ina":2604,"Ġexpensive":2605,"Ġreg":2606,"iff":2607,"Ġmysterious":2608,"ĠSp":2609,"Ġpump":2610,"Ġnote":2611,"Ġhero":2612,"Ġmarch":2613,"Ġhar":2614,"arl":2615,"Ġicy":2616,"Ġrespect":2617,"Ġweird":2618,"Ġsnee":2619,"Ġcri":2620,"Ġgate":2621,"Ġsoap":2622,"rag":2623,"ute":2624,"issors":2625,"Ġthese":2626,"Ġpoor":2627,"Ġtowel":2628,"Ġwhale":2629,"Ġfeet":2630,"Ġtape":2631,"Ġdizzy":2632,"itter":2633,"Ġgenerous":2634,"ndpa":2635,"Ġpres":2636,"ĠBenny":2637,"nic":2638,"Ġdisco":2639,"Help":2640,"ventually":2641,"Ġpicnic":2642,"Ġmic":2643,"Ġlead":2644,"Ġsque":2645,"Ġembarrassed":2646,"Ġjourney":2647,"Ġsugar":2648,"isp":2649,"scape":2650,"Ġboot":2651,"Ġtent":2652,"Ġpeaceful":2653,"Ġfat":2654,"ĠBear":2655,"Ġscissors":2656,"Tommy":2657,"Ġtasted":2658,"Ġyelled":2659,"Ġtick":2660,"Ġmel":2661,"Ġbrush":2662,"Ġdancing":2663,"ness":2664,"Ġglue":2665,"Ġhur":2666,"Ġrough":2667,"Ġclap":2668,"Ġbridge":2669,"ote":2670,"Ġdecor":2671,"Ġcloset":2672,"Ġcrown":2673,"Ġstir":2674,"ual":2675,"imp":2676,"Ġprint":2677,"ĠSometimes":2678,"owed":2679,"airs":2680,"ĠHow":2681,"ume":2682,"Ġcap":2683,"Ġlamp":2684,"Ġvase":2685,"Ġscare":2686,"lebr":2687,"Ġrelie":2688,"lves":2689,"any":2690,"Ġeld":2691,"Ġtele":2692,"Ġcelebr":2693,"Ġgigg":2694,"Ġwhisp":2695,"Ġlog":2696,"Ġsco":2697,"Ġblow":2698,"Ġpainted":2699,"ĠDucky":2700,"Ġpay":2701,"erries":2702,"Ġwis":2703,"Ġberries":2704,"Ġmixed":2705,"Ġspread":2706,"Ġwouldn":2707,"Ġcage":2708,"Ġbake":2709,"rob":2710,"getable":2711,"Ġmountain":2712,"Ġadm":2713,"Ġdrawing":2714,"Ġbecome":2715,"Ġfamous":2716,"Ġbean":2717,"Ġknocked":2718,"Ġnorm":2719,"Ġvegetable":2720,"asp":2721,"Ġkicked":2722,"ustr":2723,"Ġshark":2724,"ser":2725,"Ġincred":2726,"Ġlose":2727,"Ġnormal":2728,"Ġwrap":2729,"ced":2730,"Ġgroup":2731,"Ġthick":2732,"Ġ3":2733,"Ġfine":2734,"Ġglass":2735,"Ġignor":2736,"Ġclock":2737,"Ġteam":2738,"Ġelderly":2739,"Ġclear":2740,"Ġcorner":2741,"Ġfrustr":2742,"Ġmighty":2743,"robe":2744,"Ġcone":2745,"Ġincredible":2746,"ĠBr":2747,"Dad":2748,"ighed":2749,"Ġmoms":2750,"Ġbalance":2751,"Ġsock":2752,"Ġspace":2753,"Ġjam":2754,"ragile":2755,"Ġfright":2756,"Ġbranches":2757,"Ġorganized":2758,"Ġroar":2759,"port":2760,"Ġsword":2761,"alous":2762,"Ġguess":2763,"ĠMama":2764,"Ġfool":2765,"Ġsell":2766,"Ġfeed":2767,"ĠSome":2768,"Ġwhich":2769,"Ġhorn":2770,"Ġpresent":2771,"Ġjealous":2772,"Ġyarn":2773,"ony":2774,"Ġfragile":2775,"Ġburn":2776,"Ġunderstood":2777,"Ġmis":2778,"Ġstubb":2779,"Ġter":2780,"Ġfrustrated":2781,"Where":2782,"ray":2783,"Ġhose":2784,"cient":2785,"Ġspent":2786,"Ġshoe":2787,"Ġtaught":2788,"Ġstubborn":2789,"Ġtwist":2790,"Ġcreature":2791,"Ġchest":2792,"Ġspoiled":2793,"Ġrelieved":2794,"Ġancient":2795,"ique":2796,"Ġwake":2797,"Ġfier":2798,"Ġpray":2799,"Ġfierce":2800,"Ġeggs":2801,"Ġcab":2802,"Ġterri":2803,"Ġbarn":2804,"Ġpumpkin":2805,"Ġcomfortable":2806,"Ġord":2807,"ym":2808,"Ġfrightened":2809,"orry":2810,"Ġtoug":2811,"Ġunique":2812,"Ġmeasure":2813,"Ġgoat":2814,"Ġwagon":2815,"Ġunus":2816,"Ġbreath":2817,"Ġfoolish":2818,"Ġuseful":2819,"Ġexploring":2820,"dle":2821,"Ġstraw":2822,"Ġunusual":2823,"Ġdug":2824,"Ġclay":2825,"Ġdiscover":2826,"Ġtomato":2827,"ĠPe":2828,"Ġdead":2829,"Ġfinding":2830,"Ġpolice":2831,"Ġwrote":2832,"Ġclum":2833,"Ġexam":2834,"lace":2835,"Ġwaves":2836,"Ġsquare":2837,"Ġhears":2838,"Ġcabin":2839,"Ġtells":2840,"Ġnecklace":2841,"Ġdull":2842,"Ġclumsy":2843,"Ġtough":2844,"Ġbubbles":2845,"Ġnosy":2846,"kn":2847,"Ġsearched":2848,"Together":2849,"Ġwashed":2850,"Ġbathroom":2851,"Ġpaws":2852,"bby":2853,"ond":2854,"unn":2855,"anged":2856,"Ġboard":2857,"fic":2858,"known":2859,"Ġasking":2860,"Ġcrazy":2861,"Ġthankful":2862,"Ġbitter":2863,"Ġsunf":2864,"yal":2865,"Ġpir":2866,"berry":2867,"Ġind":2868,"alk":2869,"Ġdiffic":2870,"Ġrose":2871,"cil":2872,"Ġswan":2873,"Ġbloom":2874,"Ġunknown":2875,"ĠElla":2876,"Ġcovered":2877,"Ġdifficult":2878,"Ġadd":2879,"Ġpencil":2880,"Ġfinger":2881,"Ġham":2882,"Ġhoop":2883,"Ġjet":2884,"Ġwitch":2885,"Ġdrop":2886,"Me":2887,"Ġ'":2888,"Ġchicken":2889,"Ġgloomy":2890,"apped":2891,"Ġloyal":2892,"als":2893,"Here":2894,"Ġwealthy":2895,"com":2896,"light":2897,"Ġunl":2898,"Ġcats":2899,"Ġending":2900,"Ġguit":2901,"bled":2902,"shine":2903,"Ġdove":2904,"Ġjoined":2905,"Ġcher":2906,"anut":2907,"Ġmov":2908,"Ġterrible":2909,"Ġyours":2910,"iant":2911,"ĠU":2912,"ĠRex":2913,"Ġsalad":2914,"ĠAndy":2915,"Ġnuts":2916,"Ġrat":2917,"ground":2918,"Ġtiger":2919,"Ġpotato":2920,"Ġmask":2921,"xible":2922,"selves":2923,"Ġvalue":2924,"Ġchanged":2925,"Ġmoving":2926,"Ġexciting":2927,"ormous":2928,"ĠMany":2929,"Ġbody":2930,"ĠTr":2931,"Ġtoast":2932,"Ġrecord":2933,"erp":2934,"Ġzip":2935,"Ġcheap":2936,"Ġdisg":2937,"Ġguitar":2938,"irsty":2939,"Ġknowing":2940,"Ġadventur":2941,"Every":2942,"Ġyourself":2943,"Ġenormous":2944,"Ġhairy":2945,"Ġshoot":2946,"ĠBrown":2947,"Ġbored":2948,"Ġpepper":2949,"Ġremind":2950,"ory":2951,"land":2952,"Ġacorn":2953,"Ġadventurous":2954,"Ġsunshine":2955,"Ġsmaller":2956,"Ġstuff":2957,"Ġhats":2958,"Ġsolve":2959,"Ġflexible":2960,"Ġcost":2961,"rilliant":2962,"Ġknife":2963,"Ġperform":2964,"Ġsnacks":2965,"Ġnods":2966,"Ġshore":2967,"ĠJimmy":2968,"Ġbrilliant":2969,"Ġthirsty":2970,"Ġdelicate":2971,"Ġfrown":2972,"Ġdisgust":2973,"Ġcollect":2974,"Ġstri":2975,"Ġseeds":2976,"Ġcounted":2977,"Ġasleep":2978,"Ġbanana":2979,"reen":2980,"Ġmailbox":2981,"iness":2982,"Ġdough":2983,"Ġtrick":2984,"Ġneighbor":2985,"ungle":2986,"Ġheal":2987,"live":2988,"Who":2989,"Ġstage":2990,"ident":2991,"Ġmarket":2992,"Ġcube":2993,"Ġstat":2994,"Ġjungle":2995,"Ġsquee":2996,"Jim":2997,"mbre":2998,"Ġexplained":2999,"ates":3000,"Ġumbre":3001,"Ġdisgusting":3002,"fted":3003,"Ġlab":3004,"Ġjolly":3005,"Ġflash":3006,"und":3007,"Ġfridge":3008,"inal":3009,"pid":3010,"ilt":3011,"Ġcrane":3012,"corn":3013,"Ġsuit":3014,"Ġrh":3015,"iddle":3016,"Ġsunflower":3017,"Ġtimes":3018,"Ġcaterp":3019,"Ġcaterpill":3020,"ĠAl":3021,"Ġrelax":3022,"Ġshiver":3023,"Ġfour":3024,"Ġisland":3025,"iginal":3026,"Ġharm":3027,"ict":3028,"ĠWhile":3029,"ying":3030,"Ġstupid":3031,"Ġmedic":3032,"ĠInstead":3033,"Ġcomb":3034,"Ġgoose":3035,"Ġcro":3036,"edient":3037,"ĠWill":3038,"Ġstove":3039,"If":3040,"Are":3041,"Mum":3042,"Ġindepend":3043,"most":3044,"Ġspring":3045,"Ġgem":3046,"Ġbatter":3047,"Ġsighed":3048,"Ġvegetables":3049,"Ġstones":3050,"pes":3051,"Ġshine":3052,"How":3053,"Ġmedicine":3054,"Ġdepend":3055,"Ġrug":3056,"ĠYour":3057,"Ġcareless":3058,"Ġoriginal":3059,"Ġstamp":3060,"Ġgar":3061,"Inside":3062,"Ġcries":3063,"gu":3064,"Ġcarrots":3065,"Ġscr":3066,"Ġsuccessful":3067,"Ġsauce":3068,"Ġjeep":3069,"Ġpopcorn":3070,"Ġmeal":3071,"Ġobedient":3072,"Ġalmost":3073,"Ġmiddle":3074,"Ġmagn":3075,"Ġstudy":3076,"Ġindependent":3077,"Ġfearful":3078,"Ġjack":3079,"met":3080,"inky":3081,"Sorry":3082,"ĠSammy":3083,"Ġescape":3084,"Ġcaterpillar":3085,"Ġserious":3086,"Ġpeanut":3087,"Ġbedroom":3088,"There":3089,"Ġeager":3090,"aken":3091,"Ġgets":3092,"Ġparrot":3093,"Ġstatue":3094,"Ġhelmet":3095,"Ġpebb":3096,"ĠNo":3097,"Ġfountain":3098,"Ġang":3099,"Ġraven":3100,"Ġpasta":3101,"Ġumbrella":3102,"Ġcompet":3103,"Ġjacket":3104,"Ġbelonged":3105,"Ġdest":3106,"Ġfilthy":3107,"Ġdesign":3108,"Ġborrow":3109,"Ġcam":3110,"erable":3111,"Ġhouses":3112,"Ġprize":3113,"Ġhay":3114,"Ġbrace":3115,"Ġstanding":3116,"Ġmiserable":3117,"Ġraced":3118,"Ġtaken":3119,"ages":3120,"Ġfork":3121,"Ġcrayon":3122,"Ġpainting":3123,"io":3124,"Ġtriang":3125,"Ġimpressive":3126,"Ġchoose":3127,"Ġfig":3128,"Ġtied":3129,"iable":3130,"Ġspotted":3131,"Ġlifted":3132,"Ġslipped":3133,"ours":3134,"Ġtank":3135,"Ġthoughtful":3136,"Ġdependable":3137,"Ġsteal":3138,"Ġgarage":3139,"enny":3140,"Ġbuilt":3141,"Ġmush":3142,"Ġer":3143,"ipe":3144,"Ġmole":3145,"Ġcrawled":3146,"Ġscale":3147,"Ġboats":3148,"Ġpant":3149,"Ġpian":3150,"Ġhammer":3151,"Ġbottom":3152,"lph":3153,"Ġcheerful":3154,"Ġusing":3155,"Ġsmoke":3156,"Ġpicks":3157,"Ġmoder":3158,"Ġshows":3159,"berries":3160,"rn":3161,"Ġpiano":3162,"Ġmagnet":3163,"dile":3164,"codile":3165,"Ġhurts":3166,"inary":3167,"Ġref":3168,"Ġcrack":3169,"Ġeng":3170,"Ġaunt":3171,"Ġmelon":3172,"Ġwaff":3173,"Ġmodern":3174,"Ġdolph":3175,"unnel":3176,"cream":3177,"pack":3178,"Ġtunnel":3179,"oin":3180,"Ġarrow":3181,"Ġreliable":3182,"Ġhopping":3183,"Ġmushroom":3184,"Timmy":3185,"Ġjug":3186,"Ġsquash":3187,"Ġgum":3188,"Ġsink":3189,"Ġmovie":3190,"Ġtax":3191,"Ġflute":3192,"Ġbeet":3193,"Ġlean":3194,"Their":3195,"iv":3196,"Ġpopular":3197,"icop":3198,"icopter":3199,"Ġcryst":3200,"Ġones":3201,"Ġsil":3202,"Ġcompetit":3203,"Ġhelicopter":3204,"aser":3205,"Ġneeds":3206,"ipop":3207,"llipop":3208,"Ġcrocodile":3209,"Ġliz":3210,"Molly":3211,"Ġpress":3212,"Ġtroubled":3213,"Ġpige":3214,"Ġlocked":3215,"Ġtricks":3216,"Ġlollipop":3217,"Ġplayful":3218,"Ġhumble":3219,"Ġtaxi":3220,"Ġkissed":3221,"Ġlow":3222,"appy":3223,"comfortable":3224,"amond":3225,"Ġrid":3226,"Ġuncomfortable":3227,"host":3228,"Ġwander":3229,"atch":3230,"Ġangel":3231,"edy":3232,"cles":3233,"Ġtorn":3234,"Ġgrace":3235,"Ġanx":3236,"Ġwrapped":3237,"Ġmuff":3238,"Ġtwig":3239,"Ġpants":3240,"Ġdisappoin":3241,"ĠSn":3242,"Ġhelps":3243,"Ġdiamond":3244,"Ġcamera":3245,"atter":3246,"oto":3247,"Ġanxious":3248,"Ġghost":3249,"Ġtears":3250,"Ġruined":3251,"cident":3252,"ilty":3253,"ĠJenny":3254,"Ġquar":3255,"aff":3256,"ĠEven":3257,"Ġfis":3258,"opl":3259,"Ġbelt":3260,"eropl":3261,"Ġenv":3262,"Ġguilty":3263,"Ġbull":3264,"Ġaeropl":3265,"Ġhelpless":3266,"Ġhappiness":3267,"Ġlizard":3268,"Ġboys":3269,"cut":3270,"ext":3271,"Ġcere":3272,"Ġwalks":3273,"cean":3274,"Ġpassed":3275,"Ġmeant":3276,"Ġocean":3277,"Ġfluffy":3278,"Ġwire":3279,"Ġnail":3280,"Ġbracelet":3281,"Ġdeaf":3282,"zed":3283,"Ġstretch":3284,"Ġcact":3285,"Ġcandle":3286,"tt":3287,"Ġbeetle":3288,"Ġmop":3289,"Ġharmless":3290,"umpet":3291,"Ġordinary":3292,"Ġanswered":3293,"Ġcop":3294,"Ġcollar":3295,"Ġbees":3296,"Ġtire":3297,"Ġshape":3298,"Ġquarrel":3299,"Ġradio":3300,"Ġflashlight":3301,"Ġcrystal":3302,"Ġharder":3303,"Ġpoured":3304,"Ġtrumpet":3305,"Mama":3306,"Ġengine":3307,"Ġpersist":3308,"Ġhunt":3309,"Ġtooth":3310,"Ġcereal":3311,"Ġinvited":3312,"Ġcomput":3313,"Ġtag":3314,"Ġoffice":3315,"Ġmelt":3316,"Ġspill":3317,"Ġcharm":3318,"coa":3319,"Ġlit":3320,"Ġscoot":3321,"Ġcomet":3322,"Ġtriangle":3323,"ief":3324,"Ġmug":3325,"Ġrep":3326,"ube":3327,"Ġyogurt":3328,"Ġspend":3329,"Ġcompass":3330,"Ġaccident":3331,"Ġshade":3332,"hett":3333,"aghett":3334,"aghetti":3335,"Ġdisappointed":3336,"Ġlicked":3337,"Ġcactus":3338,"Ġpale":3339,"Ġcush":3340,"Ġfigure":3341,"Jane":3342,"Ġgiving":3343,"Ġregular":3344,"Ġavoc":3345,"Ġpro":3346,"Ġsheet":3347,"Ġwhispered":3348,"aze":3349,"uth":3350,"ellig":3351,"Ġcreate":3352,"Ġbarber":3353,"Ġintellig":3354,"Ġpipe":3355,"Ġrode":3356,"Ġroof":3357,"Ġthread":3358,"ither":3359,"Ġlibr":3360,"Ġload":3361,"Ġvi":3362,"Ġgifted":3363,"ccol":3364,"Ġpracticed":3365,"Ġdelight":3366,"ccoli":3367,"Ġharsh":3368,"Ġdust":3369,"Ġpow":3370,"asses":3371,"ĠTrue":3372,"Ġbicy":3373,"azz":3374,"Ġspaghetti":3375,"Ġcompassion":3376,"Ġsailed":3377,"urkey":3378,"ubby":3379,"Ġforward":3380,"Ġpersistent":3381,"Ġspeed":3382,"Ġmitten":3383,"Ġcocoa":3384,"Ġenvel":3385,"Ġquestions":3386,"Ġcomputer":3387,"Ġcoo":3388,"Ġfeathers":3389,"hip":3390,"Ġglove":3391,"ging":3392,"Bobo":3393,"Ġrice":3394,"Ġshrimp":3395,"Ġdesk":3396,"Ġstream":3397,"Ġinse":3398,"Ġpigeon":3399,"Ġcharming":3400,"Ġears":3401,"Ġcarp":3402,"lcan":3403,"Ġraft":3404,"Ġenvious":3405,"Ġknot":3406,"Ġturkey":3407,"Ġstronger":3408,"omes":3409,"Ġcoins":3410,"Ġtap":3411,"lcano":3412,"weet":3413,"Ġtrap":3414,"umbers":3415,"Ġaeroplane":3416,"Ġtrunk":3417,"Ġwheat":3418,"Ġboxes":3419,"Ġchubby":3420,"Ġcarpet":3421,"Ġrestless":3422,"Ġintelligent":3423,"Ġtube":3424,"Ġspun":3425,"Ġdreams":3426,"Ġfriendship":3427,"ulif":3428,"olin":3429,"Ġhalf":3430,"Ġloop":3431,"Ġcrawl":3432,"Ġbroccoli":3433,"Ġonion":3434,"Ġdeliver":3435,"anger":3436,"Ġacce":3437,"Ġvide":3438,"Ġvolcano":3439,"Ġsle":3440,"ĠJake":3441,"Ġtrack":3442,"Ġbri":3443,"Ġcaulif":3444,"Ġvine":3445,"ye":3446,"Ġticket":3447,"Ġthief":3448,"essie":3449,"cycle":3450,"Ġlouder":3451,"Ġinsect":3452,"Ġnumbers":3453,"asing":3454,"Ġyaw":3455,"Ġhaircut":3456,"ital":3457,"Ġsleeping":3458,"Ġmill":3459,"Ġeventually":3460,"Ġalert":3461,"Ġexcite":3462,"Ġpebble":3463,"Ġhosp":3464,"Ġattract":3465,"Ġplanet":3466,"ĠToday":3467,"Ġuniver":3468,"isted":3469,"ulu":3470,"Ġeraser":3471,"Ġhospital":3472,"Ġreturned":3473,"Ġdestro":3474,"Ġgraceful":3475,"Ġhappening":3476,"ache":3477,"ĠOK":3478,"Ġdecide":3479,"Ġlearning":3480,"Ġscreen":3481,"rework":3482,"Ġnicely":3483,"ĠEmily":3484,"Ġleop":3485,"Ġcauliflower":3486,"Ġcompetitive":3487,"Ġpoem":3488,"Ġcelebrate":3489,"Ġcurt":3490,"Ġpeach":3491,"Ġsoldier":3492,"Ġsaus":3493,"Ġparade":3494,"atient":3495,"Ġattractive":3496,"Ġcurtain":3497,"Ġbase":3498,"Ġdolphin":3499,"Ġviolin":3500,"Ġways":3501,"Go":3502,"ats":3503,"Ġtravel":3504,"ten":3505,"Ġrod":3506,"Ġignorant":3507,"ulb":3508,"Ġwheels":3509,"Ġyach":3510,"Ġscatter":3511,"Ġdeter":3512,"Ġcompassionate":3513,"Ġbarrel":3514,"Ġenvelope":3515,"Ġbubble":3516,"Ġlying":3517,"Ġfirework":3518,"Ġsort":3519,"Ġquestion":3520,"zzy":3521,"ĠPipp":3522,"Ġscooter":3523,"Ġdeterm":3524,"Ġrag":3525,"Ġthu":3526,"Ġbicycle":3527,"elery":3528,"Ġneedle":3529,"ĠFr":3530,"Ġjudge":3531,"Ġbulb":3532,"Ġleopard":3533,"Ġtem":3534,"Ġyacht":3535,"Ġpony":3536,"Ġcricket":3537,"Ġhomes":3538,"Ġorder":3539,"Ġador":3540,"tern":3541,"Ġtruth":3542,"Ġhook":3543,"Sarah":3544,"dom":3545,"Ġrubbed":3546,"ete":3547,"igator":3548,"Ġbushes":3549,"Ġuncle":3550,"Ġcushion":3551,"Ġspell":3552,"Ġgrown":3553,"Ġcooked":3554,"Ġadorable":3555,"Ġchalk":3556,"Ġsoar":3557,"Ġpurse":3558,"Ġskin":3559,"Ġthemselves":3560,"Ġimpatient":3561,"Ġcelery":3562,"Ġtray":3563,"Ġshells":3564,"Ġpengu":3565,"Ġsniff":3566,"Ġprun":3567,"Ġwalls":3568,"Ġseal":3569,"Ġlively":3570,"Ġcase":3571,"Ġalligator":3572,"Ġdistant":3573,"Ġradish":3574,"Ġsaying":3575,"Ġspeak":3576,"Ġmotorcycle":3577,"Ġmeat":3578,"Ġsend":3579,"illa":3580,"Ġspinning":3581,"Ġforth":3582,"Ġcounting":3583,"Ġenth":3584,"Ġbounced":3585,"Ġchain":3586,"Ġed":3587,"Ġcleaning":3588,"ebra":3589,"Ġfilm":3590,"Ġslept":3591,"Ġpit":3592,"Ġsurf":3593,"Ġmarry":3594,"usia":3595,"Ġwallet":3596,"Ġenthusia":3597,"Ġmetal":3598,"urb":3599,"ebook":3600,"Ġbin":3601,"Ġweek":3602,"Ġnotebook":3603,"Ġskip":3604,"Ġwiped":3605,"ision":3606,"chair":3607,"Ġbiggest":3608,"Ġimpro":3609,"Ġavocado":3610,"Ġbehave":3611,"Ġdestroy":3612,"vator":3613,"Ġbandage":3614,"Ġlaughs":3615,"Ġsteak":3616,"Ġpattern":3617,"ĠSh":3618,"Ġpost":3619,"Ġelevator":3620,"ĠBuzz":3621,"usie":3622,"Ġdive":3623,"Ġshut":3624,"Ġskipped":3625,"Ġunlock":3626,"Ġdiary":3627,"dest":3628,"ject":3629,"Ġzebra":3630,"Ġbags":3631,"ating":3632,"Ġarmchair":3633,"rage":3634,"aged":3635,"Ġdisturb":3636,"Ġoy":3637,"Ġpole":3638,"Ġshowing":3639,"Ġclub":3640,"Ġgathered":3641,"Ġnurse":3642,"bul":3643,"Ġearth":3644,"Ġenc":3645,"Ġstranger":3646,"Ġsweater":3647,"Ġjellyfish":3648,"Ġscrew":3649,"Ġtemp":3650,"ĠPoppy":3651,"Ġcompl":3652,"Ġmixer":3653,"Give":3654,"Ġskull":3655,"Ġlime":3656,"Ġbump":3657,"bulance":3658,"Ġambulance":3659,"nam":3660,"Ġfather":3661,"Gra":3662,"Ġjournal":3663,"Ġloudly":3664,"ito":3665,"Ġfolder":3666,"Ġshield":3667,"ĠLulu":3668,"ĠBet":3669,"Ġlibrary":3670,"Ġbuttons":3671,"Ġplayground":3672,"Ġtrucks":3673,"ĠPeter":3674,"Ġink":3675,"Ġlights":3676,"Ġtummy":3677,"Ġpointing":3678,"Ġcity":3679,"Ġdecorate":3680,"Ġstation":3681,"Billy":3682,"irit":3683,"Ġprep":3684,"Ġfalls":3685,"quito":3686,"ĠPolly":3687,"Ġfu":3688,"ĠFo":3689,"ention":3690,"nger":3691,"ĠBirdy":3692,"lies":3693,"Ġherb":3694,"Ġornam":3695,"Ġornament":3696,"Ġmodest":3697,"Ġguard":3698,"Ġmos":3699,"Ġknows":3700,"Ġcord":3701,"Ġpolish":3702,"Ġmarble":3703,"oby":3704,"Ġmosquito":3705,"umbled":3706,"Ġsalt":3707,"Ġattic":3708,"Ġwhenever":3709,"Ġvest":3710,"ctop":3711,"Ġresc":3712,"Ġyet":3713,"Ġple":3714,"Ġdisappeared":3715,"ceed":3716,"Ġstrawberry":3717,"Ġkay":3718,"ĠMum":3719,"Ġbrothers":3720,"Ġitch":3721,"Ġpirate":3722,"Ġfootball":3723,"Ġsplit":3724,"kele":3725,"Ġonce":3726,"keleton":3727,"Ġhipp":3728,"Ġaut":3729,"Ġled":3730,"uring":3731,"ctopus":3732,"Ġdriving":3733,"Ġcable":3734,"Ġsupport":3735,"Ġcalling":3736,"Ġcupboard":3737,"aky":3738,"ushed":3739,"Ġwishes":3740,"Ġcomplet":3741,"Ġtripped":3742,"Ġroot":3743,"Ġkayak":3744,"Ġoctopus":3745,"obile":3746,"Ġadded":3747,"Ġedge":3748,"Ġmild":3749,"stic":3750,"Ġdetermined":3751,"Ġsucceed":3752,"?\".":3753,"Ġreading":3754,"omobile":3755,"Ġcoal":3756,"Well":3757,"gl":3758,"utes":3759,"par":3760,"Ġsuggest":3761,"Ġstack":3762,"Ġthunder":3763,"Ġkindness":3764,"Ġautomobile":3765,"Ġcomplain":3766,"Ġenthusiastic":3767,"Ġsneeze":3768,"Ġcartoon":3769,"Ġyoga":3770,"Ġgrowl":3771,"htub":3772,"Ġflea":3773,"la":3774,"Ġmeadow":3775,"Ġdrawer":3776,"Ġbathtub":3777,"Ġribb":3778,"ophone":3779,"Ġhall":3780,"Ġgolf":3781,"Ġmeans":3782,"Ġskeleton":3783,"Ġmath":3784,"ĠLittle":3785,"Ġveil":3786,"Ġhunter":3787,"Ġgor":3788,"Ġflame":3789,"Ġpoke":3790,"Ġvideo":3791,"Ġchess":3792,"Ġtroph":3793,"Ġcups":3794,"Ġglowing":3795,"Ġmatt":3796,"Ġoyster":3797,"work":3798,"Ġpenny":3799,"Ġspear":3800,"Ġitself":3801,"Ġdrawings":3802,"Ġhippo":3803,"Ġrepair":3804,"Ġswitch":3805,"glasses":3806,"Ġsunglasses":3807,"Ġteleph":3808,"Ġcostume":3809,"Ġdess":3810,"Ġzipp":3811,",âĢĿ":3812,"Ġrepe":3813,"Ġmuffin":3814,"Ġarg":3815,"Ġpastry":3816,"Ġpun":3817,"Ġrolling":3818,"Ġminutes":3819,"Ġmakeup":3820,"Ġpacked":3821,"iron":3822,"ric":3823,"ĠPeople":3824,"Ġwaffle":3825,"case":3826,"Ġhandle":3827,"Ġpear":3828,"Ġmaze":3829,"Ġtelephone":3830,"Ġpine":3831,"ait":3832,"Ġgear":3833,"Ġhedge":3834,"Ġmattress":3835,"Ġpackage":3836,"aving":3837,"ĠMiss":3838,"Ġshocked":3839,"ines":3840,"Ġtrophy":3841,"Ġpowder":3842,"Ġknight":3843,"Ġcob":3844,"Ġmissile":3845,"Ġframe":3846,"Ġmanaged":3847,"Ġencou":3848,"Ġwife":3849,"Ġok":3850,"Ġsepar":3851,"web":3852,"Ġstairs":3853,"Ġrot":3854,"Ġcamp":3855,"rophone":3856,"urch":3857,"Ġmagaz":3858,"Ġstrugg":3859,"Ġcolour":3860,"Ġgrapes":3861,"Jimmy":3862,"time":3863,"Ġfile":3864,"head":3865,"ĠTina":3866,"Ġbasketball":3867,"Bye":3868,"old":3869,"per":3870,"Re":3871,"Ġcobweb":3872,"ĠTweet":3873,"See":3874,"Ġperm":3875,"Ġwool":3876,"Ġmicrophone":3877,"esday":3878,"Ġeye":3879,"Ġleash":3880,"ĠDan":3881,"Ġgasp":3882,"iew":3883,"keep":3884,"Ġweep":3885,"Ġbarking":3886,"ature":3887,"Ġsafely":3888,"Ġtear":3889,"Ġview":3890,"ffe":3891,"Ġslides":3892,"Ġsteps":3893,"istol":3894,"ffee":3895,"Ġbananas":3896,"Ġstaff":3897,"Ġspirit":3898,"Ġtask":3899,"Ġgiggled":3900,"Ġhoc":3901,"Ġhockey":3902,"Ġvend":3903,"Ġthose":3904,"Jill":3905,"Ġgorilla":3906,"Ġcooler":3907,"ĠRose":3908,"was":3909,"cing":3910,"Ġearly":3911,"Ġmarched":3912,"rosc":3913,"Ġmint":3914,"ĠLook":3915,"washer":3916,"Ġflour":3917,"Ġhotel":3918,"hic":3919,"Ġsailor":3920,"Ġdessert":3921,"Ġphoto":3922,"roscope":3923,"Ġvehic":3924,"ilot":3925,"Ġoften":3926,"Ġchurch":3927,"ĠPete":3928,"Ġcooking":3929,"Ġremain":3930,"Ġfive":3931,"Ġsausage":3932,"otter":3933,"Ġten":3934,"Ġtools":3935,"Ġmedal":3936,"Ġeither":3937,"Ġfireman":3938,"chor":3939,"Ġgrandpa":3940,"Ġotter":3941,"Ġbaseball":3942,"Ġpistol":3943,"Ġpretending":3944,"Ġdishwasher":3945,"Ġrever":3946,"Ġorganize":3947,"Ġpee":3948,"Ġvendor":3949,"Ġknock":3950,"Ġsight":3951,"Ġgrill":3952,"Ġtemple":3953,"Ġbattery":3954,"Ġthinking":3955,"Ġopens":3956,"Ġow":3957,"Ġrealised":3958,"Ġiron":3959,"Ġlaser":3960,"Ġsne":3961,"Ġoil":3962,"Ġsandbox":3963,"Ġpatch":3964,"Ġhours":3965,"Ġrise":3966,"Ġwhip":3967,"'d":3968,"ctory":3969,"ĠGive":3970,"Ġanchor":3971,"Ġtrash":3972,"ense":3973,"Ġshort":3974,"ney":3975,"ĠBetty":3976,"Ġrhin":3977,"Ġfactory":3978,"seum":3979,"Ġmay":3980,"Ġward":3981,"ately":3982,"Ġcardboard":3983,"ugged":3984,"Al":3985,"Ġlotion":3986,"Ġmessage":3987,"Ġvalu":3988,"Ġwardrobe":3989,"Ġcell":3990,"Ġmuseum":3991,"apers":3992,"Ġur":3993,"ination":3994,"Ġhanging":3995,"ucet":3996,"ĠSunny":3997,"ailable":3998,"ĠZoom":3999,"Ġhive":4000,"eer":4001,"Ġtowers":4002,"keeper":4003,"Ġblackboard":4004,"Ġmem":4005,"Ġexcitement":4006,"Ġcoffee":4007,"Ġpilot":4008,"Fluffy":4009,"ready":4010,"Ġnapkin":4011,"Ġpenguin":4012,"ron":4013,"Ġcheck":4014,"Ġreward":4015,"loo":4016,"Ġquit":4017,"ĠPippin":4018,"Ġcane":4019,"Ġpicking":4020,"place":4021,"ĠSnow":4022,"azor":4023,"Ġig":4024,"Ġfaucet":4025,"Ġpassport":4026,"ĠRob":4027,"Ġstumbled":4028,"Ġdreamed":4029,"ĠBessie":4030,"Ġigloo":4031,"aroo":4032,"angaroo":4033,"Ġfreez":4034,"Ġjuicy":4035,"Ġallowed":4036,"play":4037,"Ġholds":4038,"Ġalready":4039,"Ġavailable":4040,"Ġsett":4041,"Ġbathe":4042,"Ġtornado":4043,"imney":4044,"Ġfingers":4045,"htray":4046,"Ġhanger":4047,"Ġnewsp":4048,"Ġsize":4049,"Ġlaund":4050,"Ġlend":4051,"Ġchimney":4052,"Ġlaundry":4053,"Ġoak":4054,"Em":4055,"Ġfisher":4056,"Ġkangaroo":4057,"Ġmen":4058,"ĠEverywhere":4059,"Ġtelling":4060,"Ġnovel":4061,"body":4062,"Ġmummy":4063,"Ġpal":4064,"Ġmule":4065,"Ġcherries":4066,"Ġnotice":4067,"Ġpractice":4068,"Ġspilled":4069,"Ġreind":4070,"Ġcomplete":4071,"Ġenjoying":4072,"Ġmicroscope":4073,"arian":4074,"Ġgain":4075,"ampoo":4076,"Ġsub":4077,"Ġfireplace":4078,"Ġimagine":4079,"anda":4080,"Ġdisplay":4081,"Joe":4082,"ocer":4083,"ĠZip":4084,"Ġfastest":4085,"Ġmagazine":4086,"Ġhurry":4087,"Ġcabinet":4088,"Ġshrink":4089,"Ġashtray":4090,"Wait":4091,"Ġcows":4092,"ĠSpike":4093,"gen":4094,"Ġpalace":4095,"Ġimprove":4096,"aches":4097,"Ġrake":4098,"Ġreindeer":4099,"Ġfalling":4100,"oceros":4101,"Ġskirt":4102,"ured":4103,"Ġdiscovered":4104,"Ġstared":4105,"Ġroared":4106,"aid":4107,"Ġsilver":4108,"Ġtub":4109,"Ġtrail":4110,"Is":4111,"Ġminer":4112,"come":4113,"Ġbill":4114,"Ġfog":4115,"iction":4116,"Ġax":4117,"stairs":4118,"Ġhut":4119,"ilet":4120,"Ġhappier":4121,"Ġtaller":4122,"ictionary":4123,"Ġoats":4124,"Ġfisherman":4125,"Ġobject":4126,"Ġpor":4127,"vision":4128,"Ġvaluable":4129,"Ġshampoo":4130,"Ġholes":4131,"Ġoffered":4132,"Ġboots":4133,"Ġrhinoceros":4134,"Ġnames":4135,"Ġtoilet":4136,"Ġclimbing":4137,"Ġblin":4138,"vice":4139,"Ow":4140,"Ġstretched":4141,"iest":4142,"Ġzipper":4143,"Ġlistening":4144,"Ġsym":4145,"Ġbathrobe":4146,"alend":4147,"Ġjewelry":4148,"ĠHere":4149,"Ġjokes":4150,"Ġtelevision":4151,"Ġprov":4152,"Ġcalend":4153,"Ġstops":4154,"Ġaxe":4155,"Ġjumps":4156,"Ġfuel":4157,"cu":4158,"Ġsparkly":4159,"Ġperfume":4160,"ĠSusie":4161,"Ġbury":4162,"Mummy":4163,"bol":4164,"lu":4165,"Ġpressed":4166,"ĠKim":4167,"reek":4168,"Ġrece":4169,"fa":4170,"Ġneat":4171,"ĠToby":4172,"Ġcreek":4173,"Ġpopped":4174,"Ġopera":4175,"Ġcalendar":4176,"Ġsnap":4177,"Ġattach":4178,"Ġgasped":4179,"Ġsymbol":4180,"Ġtuna":4181,"Mr":4182,"Ġpapers":4183,"Ġunpack":4184,"Ġresist":4185,"arry":4186,"Ġdictionary":4187,"Ġsubway":4188,"Ġletters":4189,"Ġfreezer":4190,"Ġchose":4191,"Ġpinch":4192,"zag":4193,"Ġspoke":4194,"Ġanyway":4195,"Ġsuper":4196,"Ġhelper":4197,"Ġporch":4198,"affe":4199,"Ġbikes":4200,"Ġlie":4201,"ĠMar":4202,"iches":4203,"Ġcomfort":4204,"Ġtightly":4205,"Ġshaking":4206,"Ġbookcase":4207,"Ġson":4208,"Ġrazor":4209,"aurant":4210,"ĠAre":4211,"Ġsandwiches":4212,"igzag":4213,"Ġweigh":4214,"Ġagainst":4215,"Ġstickers":4216,"Ġrestaurant":4217,"Ġnewspaper":4218,"Ġblouse":4219,"Ġvehicle":4220,"Ġswinging":4221,"Ġped":4222,"Ġdisag":4223,"Ġnature":4224,"Ġsquirrels":4225,"Ġbelongs":4226,"ival":4227,"Ġswamp":4228,"Ġbutterflies":4229,"Ġgym":4230,"del":4231,"Ġinclu":4232,"Ġgrowing":4233,"Ġbuckle":4234,"omed":4235,"Ġstirred":4236,"Ġmustache":4237,"Ġbillboard":4238,"xy":4239,"Ġbeep":4240,"te":4241,"Ġalarm":4242,"Ġlip":4243,"Ġfest":4244,"Ġlightning":4245,"Little":4246,"Ġhung":4247,"utor":4248,"Ġdistance":4249,"ogn":4250,"Ġcards":4251,"Ġobser":4252,"Ġagree":4253,"Ġext":4254,"Ġtease":4255,"Ġrecogn":4256,"Ġrubber":4257,"ik":4258,"Ġhate":4259,"fast":4260,"ef":4261,"Ouch":4262,"Ġdoesn":4263,"Ġmusician":4264,"Ġadvice":4265,"Ġbeef":4266,"Ġserve":4267,"aspoon":4268,"Ġsweetie":4269,"Ġmodel":4270,"lter":4271,"Ġblueberries":4272,"Ġcrib":4273,"Ġsofa":4274,"Ġcircles":4275,"Ġbreakfast":4276,"Ġtutor":4277,"asis":4278,"Ġbookshe":4279,"Ġgiraffe":4280,"stri":4281,"Ġfestival":4282,"Ġseparate":4283,"Ġshelter":4284,"Ġgas":4285,"Ġairport":4286,"Ġolive":4287,"Ġrail":4288,"Ġbookshelf":4289,"Ġfrogs":4290,"Ġteaspoon":4291,"Ġreverse":4292,"Ġjunk":4293,"Ġriding":4294,"Ġpleased":4295,"Ġdrain":4296,"ĠMrs":4297,"Ġwipe":4298,"Ġoasis":4299,"Ġsoil":4300,"Ġahead":4301,"Ġrescue":4302,"Ġleaving":4303,"ummer":4304,"Ġpainter":4305,"Ġchance":4306,"Ġsqueeze":4307,"Ġknob":4308,"Ġpoked":4309,"ĠTeddy":4310,"Ġpeeked":4311,"Ġlumber":4312,"Ġtrains":4313,"Ġextra":4314,"Ġslipp":4315,"Ġquiz":4316,"Ġrefused":4317,"res":4318,"rmomet":4319,"Ġpage":4320,"Ġrules":4321,"Ġhappens":4322,"Ġins":4323,"Ġsounded":4324,"Ġpoint":4325,"Ġwinter":4326,"Ġdancer":4327,"Ġbirdc":4328,"ĠGrandpa":4329,"Ġdisappear":4330,"rmometer":4331,"ĠDolly":4332,"Ġwaste":4333,"Ġweather":4334,"Ġlic":4335,"Ġbirdcage":4336,"Ġtheater":4337,"Ġreef":4338,"Daisy":4339,"Ġcarrying":4340,"Ġinvite":4341,"iform":4342,"Ġgoal":4343,"Ġostri":4344,"Ġswung":4345,"Ġuniform":4346,"Ġtrade":4347,"Ġcliff":4348,"ience":4349,"Ġlawn":4350,"ĠPandy":4351,"ola":4352,"Ġleaned":4353,"angu":4354,"Ġaccept":4355,"Ġadmire":4356,"Ġfort":4357,"Ġaccidentally":4358,"Ġpastel":4359,"bbles":4360,"Ġstom":4361,"Ġlangu":4362,"Ġtwir":4363,"Ġsuff":4364,"Ġpanda":4365,"riger":4366,"Ġbet":4367,"rigerator":4368,"Ġpeek":4369,"render":4370,"Ġblinked":4371,"Ġstarts":4372,"na":4373,"Ġrefrigerator":4374,"Ġanywhere":4375,"!\".":4376,"Ġimagined":4377,"Ġdreaming":4378,"Ġremove":4379,"night":4380,"ĠLee":4381,"Ġshower":4382,"ĠCo":4383,"Ġceiling":4384,"Ġclassroom":4385,"Ġcaring":4386,"ium":4387,"Ġgrand":4388,"Ġmissing":4389,"aked":4390,"Ġlicense":4391,"Ġstable":4392,"Ġthermometer":4393,"Ġmonkeys":4394,"astic":4395,"Ġwarned":4396,"Ġsummer":4397,"ĠWhere":4398,"Ġabove":4399,"Ġbrick":4400,"ected":4401,"Ġcudd":4402,"Ġproblems":4403,"amber":4404,"Ġchasing":4405,"Ġapron":4406,"Ġlabel":4407,"Ġsent":4408,"iture":4409,"urniture":4410,"Ġlawy":4411,"Ġlid":4412,"uggage":4413,"med":4414,"Ġrespectful":4415,"Ġfurniture":4416,"Ġfrowned":4417,"Ġzoomed":4418,"Ġpages":4419,"Ġprevent":4420,"Ġbent":4421,"Ġluggage":4422,"Ġmistakes":4423,"Ġsunset":4424,"Ġostrich":4425,"ison":4426,"Ġsuggested":4427,"Ġwindows":4428,"ations":4429,"Ġjail":4430,"low":4431,"Ġwine":4432,"Ġribbon":4433,"Ġolder":4434,"Ġshouts":4435,"Ġgrape":4436,"ĠCl":4437,"Ġwigg":4438,"ucture":4439,"Ġstructure":4440,"Ġspoil":4441,"eor":4442,"Ġfixing":4443,"Ġchamber":4444,"Ġlions":4445,"Ġdelay":4446,"Ġfinds":4447,"Ġhanded":4448,"Ġsearching":4449,"Ġunite":4450,"Did":4451,"Ġfought":4452,"Ġlawyer":4453,"Ġbrightly":4454,"Ġpair":4455,"Ġmeeting":4456,"Ġchoice":4457,"Ġsurprises":4458,"Ch":4459,"Ġart":4460,"ĠEllie":4461,"ĠUn":4462,"Ġfavour":4463,"eterin":4464,"adium":4465,"eterinarian":4466,"Ġstadium":4467,"Ġproudly":4468,"iki":4469,"Ġveterinarian":4470,"vet":4471,"rod":4472,"Ġchairs":4473,"Ġslip":4474,"ĠSpe":4475,"Ġsadly":4476,"ĠBow":4477,"Ġincre":4478,"ĠCarl":4479,"Ġpuddles":4480,"Ġberry":4481,"Ġintrod":4482,"Ġranch":4483,"veal":4484,"ĠBoun":4485,"Ġargue":4486,"ĠV":4487,"Ġadmired":4488,"Ġcur":4489,"Ġfavourite":4490,"Your":4491,"Ġinf":4492,"Ġexcitedly":4493,"Ġrac":4494,"Ġgrabs":4495,"mend":4496,"Ġsteam":4497,"thank":4498,"Ġhuman":4499,"eorge":4500,"sity":4501,"ĠHel":4502,"Ġpushing":4503,"Ġsaving":4504,"ĠRed":4505,"Ġreveal":4506,"ommend":4507,"Ġyield":4508,"alley":4509,"olog":4510,"Ġmall":4511,"Ġreminded":4512,"Ġrecommend":4513,"Ġleak":4514,"Ġsurrender":4515,"Ġharb":4516,"Ġappl":4517,"cuss":4518,"aul":4519,"Ġweap":4520,"Ġregret":4521,"Ġputting":4522,"Ġvalley":4523,"Ġmineral":4524,"Ġevening":4525,"elcome":4526,"Ġforgave":4527,"Ġmatches":4528,"Ġsneezed":4529,"Ġaw":4530,"Ġpup":4531,"Ġrushed":4532,"ecause":4533,"Ġspade":4534,"Ġapolog":4535,"Ġplates":4536,"Ġdiscuss":4537,"Ġprepare":4538,"Ġharbor":4539,"Ġignore":4540,"Ġcountry":4541,"ĠBig":4542,"Ġlanguage":4543,"ĠBuzzy":4544,"Ġpulls":4545,"Ġplastic":4546,"Ġsupply":4547,"Ġfloat":4548,"Ġsniffed":4549,"ĠJazz":4550,"Ġreplace":4551,"Ġmeas":4552,"Ġshovel":4553,"Ġraise":4554,"ĠNext":4555,"ĠBill":4556,"Ġfre":4557,"Ġcared":4558,"Ġsocks":4559,"Ġstrip":4560,"Ġdoors":4561,"Ġmystery":4562,"Ġlives":4563,"Ġrestore":4564,"Ġsticker":4565,"Ġsudden":4566,"ari":4567,"Ġkinds":4568,"Ġslippery":4569,"ero":4570,"ĠOw":4571,"Ġplayer":4572,"Ġpanic":4573,"Ġhoping":4574,"ricane":4575,"iday":4576,"Ġshone":4577,"lex":4578,"hero":4579,"Ġbeg":4580,"ĠBinky":4581,"Ġsuperhero":4582,"ĠMike":4583,"Ġdelighted":4584,"Ġgro":4585,"Yay":4586,"aud":4587,"chan":4588,"Ġchickens":4589,"Ġshoulder":4590,"Ġrained":4591,"Ġcolourful":4592,"Ġbreat":4593,"Ġclaw":4594,"ĠAlice":4595,"ĠBubbles":4596,"Yuck":4597,"Ġsoftly":4598,"rise":4599,"Ġport":4600,"Grandma":4601,"Ġhol":4602,"icer":4603,"Ġholiday":4604,"Mary":4605,"ĠâĢ":4606,"Ġbarks":4607,"ason":4608,"Ġthrowing":4609,"Ġplanes":4610,"Ġbend":4611,"ĠFreddy":4612,"Ġshakes":4613,"Ġended":4614,"Ġinfant":4615,"Ġshivering":4616,"Ġkneel":4617,"Ġsunrise":4618,"Ġpushes":4619,"ĠOlive":4620,"Ġthanks":4621,"Ġfresh":4622,"Ġsuffer":4623,"Ġpoints":4624,"imed":4625,"wards":4626,"Ġtip":4627,"ĠPat":4628,"ĠSpeedy":4629,"Ġfreeze":4630,"Ġkeeping":4631,"ĠWould":4632,"Ġcopper":4633,"Ġgiggle":4634,"Ġsmells":4635,"Ġdear":4636,"Ġenter":4637,"Ġprovide":4638,"cast":4639,"chanic":4640,"Ġdishes":4641,"ĠEnd":4642,"cond":4643,"Next":4644,"Ġunh":4645,"Ġapplaud":4646,"Ġheads":4647,"Ġhurricane":4648,"Ġcherry":4649,"Ġmass":4650,"Ġthumb":4651,"Ġmeowed":4652,"Ġmenu":4653,"Ġsecond":4654,"Ġbrighter":4655,"ince":4656,"Ġsandcast":4657,"Ġmechanic":4658,"Ġwre":4659,"Ġsprayed":4660,"Ġevent":4661,"Ġletting":4662,"Ġweapon":4663,"Ġlaught":4664,"Ġx":4665,"Ġlaughter":4666,"Ġclapping":4667,"Ġfeelings":4668,"Will":4669,"icky":4670,"Ġsplashing":4671,"ement":4672,"ĠOr":4673,"acked":4674,"Ġcastles":4675,"ĠFl":4676,"cer":4677,"Ġscore":4678,"apping":4679,"Ġuniverse":4680,"Ġnavy":4681,"Ġdem":4682,"Ġsticky":4683,"ophie":4684,"Ġrow":4685,"Ġrooms":4686,"Ġflies":4687,"igi":4688,"Ġunhappy":4689,"ĠDave":4690,"Ġgreedy":4691,"Ġdare":4692,"Ġalive":4693,"Ġbreaks":4694,"Ġener":4695,"Ġcourage":4696,"Ġinvit":4697,"Ready":4698,"Ġrepeat":4699,"Ġdemand":4700,"Lisa":4701,"Ġtrusted":4702,"Ġsomewhere":4703,"arlie":4704,"Ġprune":4705,"bles":4706,"Ġwreck":4707,"Ġskill":4708,"ĠY":4709,"Ġexamine":4710,"Ġparts":4711,"year":4712,"All":4713,"Ġeaten":4714,"oe":4715,"erc":4716,"enry":4717,"Ġmention":4718,"Ġraining":4719,"ĠHelp":4720,"Buddy":4721,"Ġthrows":4722,"Ġjogged":4723,"quest":4724,"Ġstarting":4725,"Ġrush":4726,"Emma":4727,"Ġpoison":4728,"Ġpirates":4729,"heart":4730,"Ġvac":4731,"Ġcontent":4732,"ĠKiki":4733,"Ġsigh":4734,"Ġflapped":4735,"Ġdrops":4736,"Ġchirp":4737,"Ġsport":4738,"Qu":4739,"Ġsparkled":4740,"ĠZoomy":4741,"Ġgiven":4742,"Ann":4743,"Ġstreng":4744,"Ġsteel":4745,"Ġbumped":4746,"Ġyawned":4747,"Ġstud":4748,"Ġrequest":4749,"Ġscold":4750,"Ġmyself":4751,"Ġstrength":4752,"Ġshrugged":4753,"Mark":4754,"Ġcoats":4755,"Ġpunish":4756,"Ġequ":4757,"Ġsnugg":4758,"Ġuniversity":4759,"Ġpaid":4760,"Ġpigs":4761,"Ġscratch":4762,"Ġtoe":4763,"Ġexerc":4764,"Ġtracks":4765,"ĠJohnny":4766,"Ġupstairs":4767,"Ġprayed":4768,"Ġcrossed":4769,"Ġsqueezed":4770,"Ġflood":4771,"Ġimpressed":4772,"Ġbouncing":4773,"ĠRu":4774,"Alice":4775,"Ġrabbits":4776,"ges":4777,"Ġbadly":4778,"..":4779,"Ġleather":4780,"Ġwarn":4781,"Ġexpect":4782,"Ġnews":4783,"Ġtide":4784,"ĠTed":4785,"Ġminute":4786,"Ġbears":4787,"Ġclaws":4788,"Ġbuzz":4789,"Ġsweetheart":4790,"ĠSm":4791,"yth":4792,"Ġnation":4793,"Sh":4794,"ythm":4795,"Ġhist":4796,"Ġvacation":4797,"Ġheat":4798,"Ġstrawberries":4799,"Ġobserve":4800,"Ġexplored":4801,"Ġsettle":4802,"Ġsandcastle":4803,"Ġyawn":4804,"Ġhistory":4805,"mare":4806,"ĠLilly":4807,"Daddy":4808,"ĠLola":4809,"ĠMummy":4810,"ĠSque":4811,"ially":4812,"inking":4813,"Ġbelieved":4814,"Ġhorses":4815,"ĠHoppy":4816,"Ġchecked":4817,"ĠMandy":4818,"Ġtour":4819,"Ġnetwork":4820,"Ġcheek":4821,"ĠUnder":4822,"Ġoffer":4823,"Ġeasily":4824,"Ġplaced":4825,"spec":4826,"Ġspots":4827,"Ġsnowball":4828,"ween":4829,"men":4830,"Ġenergy":4831,"ĠBee":4832,"Ġimagination":4833,"Ġblueberry":4834,"otten":4835,"Ġbetween":4836,"specially":4837,"ĠGigi":4838,"izes":4839,"Ġdaisy":4840,"Ġwaving":4841,"reeze":4842,"reat":4843,"Ġvroom":4844,"Ġsoak":4845,"Ġsafari":4846,"Ġrhythm":4847,"Ġmassage":4848,"Ġstomach":4849,"Ġbaking":4850,"quake":4851,"Ġnightmare":4852,"Ġinsisted":4853,"Ġblowing":4854,"Ġentered":4855,"Before":4856,"Ġstair":4857,"Ġpalm":4858,"Ġbeauty":4859,"Ġtwisted":4860,"Ġbother":4861,"Ġwriting":4862,"Ġscoop":4863,"Ġprunes":4864,"Ġbrain":4865,"Ġing":4866,"ipment":4867,"Ġpoppy":4868,"Ġhills":4869,"noon":4870,"Ġafternoon":4871,"Ġespecially":4872,"Ġequipment":4873,"hest":4874,"Ġsir":4875,"Ġpad":4876,"ĠSee":4877,"Ġingred":4878,"Ġcalls":4879,"ĠFox":4880,"Ġingredient":4881,"Ġearthquake":4882,"Ġignored":4883,"ĠSnowy":4884,"Ġburned":4885,"Ġnobody":4886,"mble":4887,"Ġsty":4888,"apa":4889,"Ġsew":4890,"Ġtug":4891,"isty":4892,"Ġhearts":4893,"xygen":4894,"Ġlear":4895,"Ġlearnt":4896,"Ġlemonade":4897,"Jenny":4898,"Ġincrease":4899,"illie":4900,"Ġgaz":4901,"Ġbackpack":4902,"Ġmailman":4903,"Fred":4904,"Ġwhistled":4905,"Ġpedal":4906,"ĠSk":4907,"Ġshopkeeper":4908,"ffic":4909,"Ġpermit":4910,"Ġtremble":4911,"Ġyucky":4912,"anges":4913,"Ġmoves":4914,"Ġintroduce":4915,"Ġlemons":4916,"Ġcrash":4917,"Ġbeans":4918,"Ġfloated":4919,"edn":4920,"ednesday":4921,"ittens":4922,"Welcome":4923,"Ġplanned":4924,"Ġstrike":4925,"Ġtraffic":4926,"Ġinclude":4927,"Ġslap":4928,"ĠLucky":4929,"Ġracing":4930,"resses":4931,"Ġwisdom":4932,"Ġpur":4933,"Ġwags":4934,"ĠFinny":4935,"laimed":4936,"Ġluck":4937,"ĠGeorge":4938,"Ġfollowing":4939,"Ġprice":4940,"ecting":4941,"Ġmama":4942,"Ġpitch":4943,"Ġbelow":4944,"ĠElly":4945,"ĠHave":4946,"Le":4947,"Ġweight":4948,"Ġexclaimed":4949,"house":4950,"Ġburied":4951,"Ġcomf":4952,"Ġfollows":4953,"Ġrecognize":4954,"Ġingredients":4955,"Ġfurt":4956,"tain":4957,"Ġcandles":4958,"Mimi":4959,"Ġmarbles":4960,"riage":4961,"unday":4962,"emember":4963,"eration":4964,"ĠWednesday":4965,"Ġapart":4966,"Ġgrowled":4967,"uct":4968,"ĠAlex":4969,"ores":4970,"Ġconf":4971,"ĠSu":4972,"Ġhopes":4973,"Ġteaching":4974,"Ġfolded":4975,"Ġclosely":4976,"ĠFinn":4977,"ĠWho":4978,"Ġheel":4979,"ĠSunday":4980,"Ġencourage":4981,"ĠOwl":4982,"Ġzigzag":4983,"ĠPaul":4984,"Ġpulling":4985,"Ġdigg":4986,"Ġbouncy":4987,"Ġfurther":4988,"Ġchewed":4989,"Ġdigging":4990,"Ġwinning":4991,"With":4992,"Woof":4993,"Ġdresses":4994,"Ġimage":4995,"rec":4996,"cery":4997,"Ġshouting":4998,"Ġgrocery":4999,"Ġtwisty":5000,"Ġpeanuts":5001,"Ġpuzzles":5002,"bbing":5003,"ĠDog":5004,"look":5005,"Ġscrat":5006,"Ġchores":5007,"Ġwhisper":5008,"ĠIs":5009,"Ġspike":5010,"ĠFroggy":5011,"Ġcape":5012,"Ġsnail":5013,"Ġacorns":5014,"Ġworms":5015,"hood":5016,"Ġdeeper":5017,"Ġurge":5018,"ifi":5019,"Ġexper":5020,"ĠWhenever":5021,"ĠTilly":5022,"ĠSqueaky":5023,"ĠGrace":5024,"Ġplanted":5025,"Ġattention":5026,"ecture":5027,"Ġexercise":5028,"Ġcub":5029,"Ġoperation":5030,"Ġunderground":5031,"ĠDanny":5032,"Ġhon":5033,"Ġagre":5034,"Everyone":5035,"Ġquite":5036,"Ġcreatures":5037,"Ġsimp":5038,"Ġstruggle":5039,"oral":5040,"ĠMittens":5041,"ddy":5042,"Ġblood":5043,"Ġlecture":5044,"Ġwashing":5045,"Ġhurting":5046,"Ġgifts":5047,"Ġvanished":5048,"Ġdressed":5049,"Ġinvitation":5050,"Ġsolved":5051,"Ġlicks":5052,"ĠSharing":5053,"Ġsnuggled":5054,"ippy":5055,"Ġble":5056,"Ġmarriage":5057,"Ġquietly":5058,"gie":5059,"Ġwarning":5060,"Ġjazz":5061,"Ġbreathe":5062,"reci":5063,"Ġelephants":5064,"Ġsizes":5065,"Ġdried":5066,"Ġfallen":5067,"Ġlandscape":5068,"ories":5069,"Ġsprink":5070,"Ġneighbour":5071,"Ġmice":5072,"uesday":5073,"Ġappreci":5074,"ĠSophie":5075,"ĠâĢĵ":5076,"ĠJoey":5077,"Ġeagerly":5078,"Ġsailing":5079,"ĠCoco":5080,"Ġpaused":5081,"ips":5082,"Ġcounter":5083,"ĠGood":5084,"ĠBounce":5085,"ĠPenny":5086,"Ġworth":5087,"looking":5088,"ĠRock":5089,"Ġoxygen":5090,"Because":5091,"Ġrelease":5092,"Ġshined":5093,"Not":5094,"pted":5095,"Ġreaches":5096,"Ġbalan":5097,"ĠZara":5098,"isses":5099,"Ġoh":5100,"Ġkisses":5101,"Ġstyle":5102,"Ġbricks":5103,"Ġplays":5104,"Ġglo":5105,"ĠTuesday":5106,"Ġideas":5107,"sed":5108,"Ġinst":5109,"Ġwob":5110,"Ġfireworks":5111,"Bella":5112,"iggly":5113,"ucked":5114,"Ġseeing":5115,"Ġflap":5116,"ops":5117,"Ġaccepted":5118,"right":5119,"ĠPip":5120,"Today":5121,"Ġblink":5122,"mm":5123,"Ġtremb":5124,"ĠRos":5125,"These":5126,"Ġmuddy":5127,"Ġmemory":5128,"Ġmarried":5129,"Ġtomatoes":5130,"Ġexit":5131,"Ġwagging":5132,"Ġfash":5133,"ĠAnnie":5134,"Remy":5135,"ĠCharlie":5136,"Ġwandered":5137,"unately":5138,"ipping":5139,"Ġgloves":5140,"Ġcaptain":5141,"Ġpillows":5142,"Ġreceive":5143,"Ġresp":5144,"ĠPinky":5145,"raged":5146,"Ġduring":5147,"ĠEverything":5148,"etch":5149,"Ġweb":5150,"Ġpetals":5151,"Ġwatered":5152,"Ġsi":5153,"ĠEventually":5154,"ived":5155,"Ġmanage":5156,"Ġbrings":5157,"Ġpinched":5158,"Ġcakes":5159,"Ġvanish":5160,"Ġfashion":5161,"ĠBluey":5162,"Ġprinter":5163,"Ġdestroyed":5164,"Ġtreasures":5165,"nce":5166,"Ġallow":5167,"ups":5168,"Ġhadn":5169,"Ġworse":5170,"ĠFifi":5171,"Surpr":5172,"Ġvel":5173,"Ġhits":5174,"Ġbur":5175,"xu":5176,"Ġvelvet":5177,"Ġappear":5178,"Ġdisagree":5179,"do":5180,"Ġcatching":5181,"Ġscattered":5182,"ĠRo":5183,"Ġmemories":5184,"Ġsorts":5185,"ĠPapa":5186,"Ġhers":5187,"Ġscolded":5188,"Ġpears":5189,"Ġoranges":5190,"Ġsigns":5191,"Ġbones":5192,"Ġrang":5193,"Ġsnapped":5194,"Ġsits":5195,"Ġseats":5196,"uxu":5197,"Ġgazed":5198,"Ġraised":5199,"Bl":5200,"Ġzipped":5201,"Ġpies":5202,"ĠMaria":5203,"Ġprints":5204,"Ġshot":5205,"Ġsliding":5206,"ĠGod":5207,"Ġfro":5208,"Ġeasier":5209,"ssible":5210,"Ġskills":5211,"Ġclimbs":5212,"Ġtwirled":5213,"ccer":5214,"Ġblankets":5215,"Ġforgotten":5216,"Ġbaked":5217,"ester":5218,"Yum":5219,"Ġdifference":5220,"esterday":5221,"Ġluxu":5222,"orted":5223,"Ġgolden":5224,"ising":5225,"Ġkitty":5226,"ĠTw":5227,"Ġcutting":5228,"Ġseason":5229,"aggie":5230,"Ġnowhere":5231,"Ġcrow":5232,"ah":5233,"anny":5234,"Ġsoccer":5235,"Ġdared":5236,"Ġbites":5237,"ĠHarry":5238,"ĠHenry":5239,"Ġlung":5240,"Ġcelebrated":5241,"choo":5242,"chie":5243,"Ġstraight":5244,"Ġunlocked":5245,"sters":5246,"Ġsorting":5247,"Ġcollected":5248,"Ġbleed":5249,"aped":5250,"ding":5251,"Ġwelcomed":5252,"Ġvisited":5253,"Ġspoons":5254,"Ġours":5255,"Ġstitch":5256,"Ġjogging":5257,"Surprise":5258,"medi":5259,"Ġemer":5260,"ĠSpark":5261,"mediately":5262,"Ġisn":5263,"Ġtong":5264,"Ġtrave":5265,"Ġwinner":5266,"umble":5267,"Ġsince":5268,"Ġruin":5269,"Ġprett":5270,"Ok":5271,"Moral":5272,"Ġattached":5273,"ĠTony":5274,"Ġweeping":5275,"Ġmarching":5276,"Ġluxury":5277,"Ġsimple":5278,"ĠEach":5279,"Ġshouldn":5280,"Ġguessed":5281,"Ġzero":5282,"Ġcreated":5283,"Ġstuffed":5284,"Ġpets":5285,"ction":5286,"Ġwaist":5287,"Ġfamil":5288,"Ġurged":5289,"Ġbowed":5290,"Ġselling":5291,"Ġfloating":5292,"rr":5293,"ĠSmith":5294,"Ġbye":5295,"ĠKing":5296,"Ġvict":5297,"Ġkingdom":5298,"Ġolives":5299,"Ġkicking":5300,"ĠWiggly":5301,"Ġpunished":5302,"ĠLiz":5303,"ĠBaby":5304,"sit":5305,"Ġtoes":5306,"Ġgrant":5307,"Ġmuscles":5308,"Ġjewels":5309,"ĠRosie":5310,"Ġbeds":5311,"Ġmelted":5312,"Goodbye":5313,"Ġslice":5314,"Ġgrin":5315,"Ġunderstanding":5316,"Ġcollection":5317,"Ġtore":5318,"Ġmeasured":5319,"aker":5320,"Ġcras":5321,"iers":5322,"Ġtrapped":5323,"omeday":5324,"Ġlined":5325,"'ve":5326,"Ġacted":5327,"fortunately":5328,"Ġencouraged":5329,"va":5330,"ĠSandy":5331,"Ġreceived":5332,"Ġwaffles":5333,"ĠBefore":5334,"ĠWally":5335,"Ġwest":5336,"Ġmeow":5337,"ents":5338,"Ġpatterns":5339,"rin":5340,"ino":5341,"Ġbrus":5342,"eath":5343,"Ġmouths":5344,"kins":5345,"Ġbang":5346,"ring":5347,"Meow":5348,"ĠKate":5349,"Ġpeaches":5350,"Ġbreeze":5351,"aded":5352,"une":5353,"Ġprinted":5354,"Ġsoldiers":5355,"Ġsomeday":5356,"Ġpotatoes":5357,"Ġpupil":5358,"umes":5359,"ĠMillie":5360,"Ġdrinks":5361,"Ġshed":5362,"Ġexperience":5363,"ĠTuna":5364,"Ġpresents":5365,"Ġfiref":5366,"ĠRuby":5367,"Ġsurround":5368,"Ġnone":5369,"Ġvoices":5370,"osed":5371,"eep":5372,"Ġdrinking":5373,"ĠUncle":5374,"ishing":5375,"Ġrelaxed":5376,"Ġvictory":5377,"cus":5378,"Ġbreaking":5379,"Ġpaints":5380,"eve":5381,"Ġhurried":5382,"ission":5383,"Ġtwink":5384,"Ġtongue":5385,"Ġcostumes":5386,"Ġflat":5387,"Ġmentioned":5388,"Ġbegged":5389,"Ġteasing":5390,"Ġwhistling":5391,"Ġfetch":5392,"Ġpermission":5393,"Ġsip":5394,"Ġdisagreed":5395,"Ġpearl":5396,"akes":5397,"Ġstro":5398,"vest":5399,"ĠThese":5400,"Ġesc":5401,"Ġappro":5402,"Ġskipping":5403,"Ġfishing":5404,"ĠMay":5405,"Leo":5406,"Ġhighest":5407,"Ġpra":5408,"Ġwatches":5409,"Ġsorted":5410,"Ġringing":5411,"ship":5412,"Ġtonight":5413,"ĠBo":5414,"Ġopin":5415,"Ġlets":5416,"icing":5417,"ĠQu":5418,"Ġperfectly":5419,"Ġshadows":5420,"Ġimmediately":5421,"Ġherbs":5422,"Ġwarmth":5423,"Ġspit":5424,"Ġremained":5425,"ther":5426,"ĠIts":5427,"Bobby":5428,"walk":5429,"irring":5430,"Jen":5431,"Ġsneak":5432,"Ġsix":5433,"Ġlips":5434,"Ġkneeled":5435,"Blue":5436,"ĠChe":5437,"Ġcontest":5438,"utter":5439,"Ġcartoons":5440,"Ġsidewalk":5441,"Ġcolours":5442,"Ġstamps":5443,"Ġago":5444,"Ha":5445,"ĠToto":5446,"ĠBoo":5447,"ĠFollow":5448,"Ġeast":5449,"Ġheaded":5450,"oved":5451,"\",":5452,"Ġstrang":5453,"Ġfed":5454,"Ġladyb":5455,"Ġsupposed":5456,"Ġlick":5457,"Ġroots":5458,"Ġcrunch":5459,"Ġmixing":5460,"Ġworks":5461,"Mandy":5462,"Ġdecorations":5463,"Ġknown":5464,"Ġmelting":5465,"Ġemergen":5466,"ĠAb":5467,"Ġrested":5468,"Ġlines":5469,"Ġlily":5470,"Ġinstr":5471,"ĠSuzy":5472,"ĠJul":5473,"Ġlaid":5474,"ĠGr":5475,"Ġcones":5476,"Ġsucceeded":5477,"Ġwiggle":5478,"ety":5479,"sing":5480,"Ġshock":5481,"Ġsetting":5482,"ĠSlow":5483,"Ġstudied":5484,"Ġstrangers":5485,"ĠRocky":5486,"Really":5487,"Ġtwigs":5488,"Ġbrid":5489,"Ġtheirs":5490,"ĠDr":5491,"Ġgirls":5492,"boo":5493,"!\",":5494,"Ġscreams":5495,"Ġlands":5496,"Ġordered":5497,"Ġstirring":5498,"Ġmoments":5499,"Ġfields":5500,"Ġalright":5501,"Andy":5502,"Ġstealing":5503,"ded":5504,"Ġrul":5505,"Ġbravely":5506,"ĠBoth":5507,"avid":5508,"Ġmister":5509,"!'":5510,"Ġinvest":5511,"Ġscratched":5512,"Ġplaytime":5513,"Ġripped":5514,"Ġinvestig":5515,"Ġtucked":5516,"Ġresting":5517,"Ġburning":5518,"Sammy":5519,"ishes":5520,"ĠChicky":5521,"ĠClara":5522,"Ġbridges":5523,"Ġofficer":5524,"please":5525,"Bird":5526,"abies":5527,"Ġsettled":5528,"Ġachie":5529,"Ġmatched":5530,"Ġtex":5531,"Ġtexture":5532,"Peter":5533,"Happy":5534,"Ġturning":5535,"Ġwaits":5536,"ĠSky":5537,"ored":5538,"Ġtrembling":5539,"isten":5540,"Ġnails":5541,"atie":5542,"ĠSomeone":5543,"Ġmuffins":5544,"ids":5545,"ĠJames":5546,"Ġescaped":5547,"Ġpiles":5548,"Ġinvestigate":5549,"Ġbroom":5550,"osity":5551,"Ġladybug":5552,"Ġsore":5553,"ĠPepper":5554,"Ġadmir":5555,"Ġappreciate":5556,"Ġthreat":5557,"Ġbabies":5558,"Ġsilence":5559,"Ġsisters":5560,"Ġarea":5561,"ides":5562,"Ġdads":5563,"Ġemergency":5564,"Ġanswers":5565,"Ġpupp":5566,"Ġkeys":5567,"Ġchewing":5568,"Ġslapped":5569,"Ġwiz":5570,"Ġimportance":5571,"Boo":5572,"Ġserved":5573,"ĠHop":5574,"Ġsafety":5575,"izing":5576,"Bu":5577,"Would":5578,"Ġsparkle":5579,"Ġtouching":5580,"ĠLater":5581,"Ġsoared":5582,"igail":5583,"Ġsings":5584,"Ġhen":5585,"allen":5586,"Ella":5587,"bers":5588,"antly":5589,"Momo":5590,"ĠDino":5591,"Ġkeeps":5592,"Ġamazement":5593,"Ġchallen":5594,"Ġhesit":5595,"Ġtwin":5596,"Ġrevealed":5597,"anna":5598,"achel":5599,"Ġdire":5600,"Ġitem":5601,"Ġsoaked":5602,"zing":5603,"Ġwrit":5604,"Ġfoods":5605,"Ġdinosaurs":5606,"Ġrides":5607,"Ġrecorded":5608,"Ġtickle":5609,"Ġinch":5610,"ĠZigzag":5611,"ĠMe":5612,"Ġwizard":5613,"Ġvet":5614,"Ġtrips":5615,"Ġglowed":5616,"ĠFrog":5617,"ĠAn":5618,"Mmm":5619,"Ġhi":5620,"Ġbeamed":5621,"Ġquack":5622,"Ġcurled":5623,"Ġhated":5624,"Ġwink":5625,"Ġshopping":5626,"Ġeats":5627,"Eventually":5628,"ĠBug":5629,"Ġpraised":5630,"Ġwooden":5631,"Ġbringing":5632,"Ġmittens":5633,"Ġstudying":5634,"Ġguy":5635,"Ġbrushes":5636,"Ġspaceship":5637,"Ġgust":5638,"Ġcrawling":5639,"ĠSomething":5640,"Cat":5641,"Ġruler":5642,"Ġflav":5643,"Ġdownstairs":5644,"Ġshooting":5645,"Ġnapping":5646,"Ġtastes":5647,"Ġmarks":5648,"Ġsprinkles":5649,"Ġcuddled":5650,"Ġdot":5651,"hello":5652,"Ġfut":5653,"plash":5654,"ales":5655,"aved":5656,"Ġfuture":5657,"Ġmonsters":5658,"Ġcollecting":5659,"Ġmeasuring":5660,"ĠHappy":5661,"'.":5662,"Ġfamilies":5663,"ĠFirst":5664,"ĠOut":5665,"ĠMo":5666,"Ġthrill":5667,"Ġoat":5668,"Jake":5669,"irts":5670,"Ġresult":5671,"ĠRabbit":5672,"Ġapproached":5673,"Ġcrunchy":5674,"act":5675,"Un":5676,"Ġremem":5677,"Ġbleeding":5678,"Ġremembers":5679,"Ġnicer":5680,"Ġbeat":5681,"Ġsneaky":5682,"Ġdisturbed":5683,"Ġleader":5684,"Ġscaring":5685,"Or":5686,"hind":5687,"Ġpeel":5688,"Emily":5689,"ĠHope":5690,"Ġfiremen":5691,"ĠStar":5692,"Ġneighborhood":5693,"Ġgrey":5694,"ĠNot":5695,"Ġmotion":5696,"Ġnoon":5697,"Ġpossible":5698,"Somet":5699,"Ġapologized":5700,"Ġweighed":5701,"ues":5702,"ĠDid":5703,"Ġtickets":5704,"Cl":5705,"Ġnaps":5706,"Ġloose":5707,"Ġpride":5708,"Ġyouth":5709,"Ġswims":5710,"ped":5711,"Ġstrings":5712,"Ġrecognized":5713,"Ġsiren":5714,"Ġpoking":5715,"fied":5716,"ĠHo":5717,"cious":5718,"ha":5719,"elvet":5720,"Ġtricked":5721,"Ġwonders":5722,"Ġgained":5723,"Ġwanting":5724,"Ġcrashed":5725,"Ġobe":5726,"Ġseesaw":5727,"Ġworker":5728,"unnies":5729,"ls":5730,"oming":5731,"Ġdraws":5732,"Ġscooped":5733,".'":5734,"Ġzooming":5735,"Ġopinion":5736,"Ġyelling":5737,"Ġprepared":5738,"Ġgrinned":5739,"ĠSlowly":5740,"Ġawe":5741,"Ġdoggy":5742,"Ġpoems":5743,"Ġacting":5744,"ĠBeep":5745,"Ġhappiest":5746,"Ġchef":5747,"Ġsneaked":5748,"Ġrespons":5749,"Ġeff":5750,"ĠAlways":5751,"ĠLizzy":5752,"Ġbunnies":5753,"Ġowned":5754,"Ġanytime":5755,"Ġstruck":5756,"Ġpedals":5757,"Ġknelt":5758,"oys":5759,"Ollie":5760,"ena":5761,"Ġsecrets":5762,"Ġpause":5763,"Ġdecorated":5764,"Ġhorns":5765,"Ġagreement":5766,"ĠSqu":5767,"ided":5768,"Ġfrost":5769,"Ġtallest":5770,"Ġobey":5771,"Remember":5772,"riends":5773,"ogo":5774,"ĠStop":5775,"Have":5776,"Ġdecides":5777,"Ġbehaved":5778,"Ġtugged":5779,"Ġsides":5780,"Ġwoof":5781,"Ġslim":5782,"zen":5783,"Ġgoodnight":5784,"Ġkeeper":5785,"Ġsparkling":5786,"Ġchirped":5787,"Ġprecious":5788,"mother":5789,"ien":5790,"lier":5791,"Tr":5792,"Ġrepeated":5793,"Ġclaps":5794,"indy":5795,"Ġcontain":5796,"affes":5797,"Ġsnowballs":5798,"ud":5799,"rs":5800,"ĠRay":5801,"Ġourselves":5802,"allow":5803,"Ġgiraffes":5804,"Ġbalancing":5805,"Ġkindly":5806,"Ġspending":5807,"Ġwrites":5808,"ays":5809,"ppers":5810,"ĠLike":5811,"omas":5812,"Ġprop":5813,"Ġhissed":5814,"First":5815,"Ġfrozen":5816,"Ġfrosting":5817,"Ġeffort":5818,"Ġbuzzing":5819,"Ġstruggled":5820,"oh":5821,"Ġadmiring":5822,"Ġrele":5823,"iggy":5824,"Ġsweeties":5825,"ĠSteve":5826,"ĠVelvet":5827,"Ġslimy":5828,"Ġbrushed":5829,"Ġbloomed":5830,"Susie":5831,"Ġpolished":5832,"ĠAm":5833,"arth":5834,"ĠZoe":5835,"anted":5836,"Ġboo":5837,"Ġcomfy":5838,"Ġstaying":5839,"Ġrubbing":5840,"Ducky":5841,"Ġrocking":5842,"Ġpockets":5843,"Ġthrilled":5844,"Ġbeside":5845,"Ġcomple":5846,"ĠAunt":5847,"ĠMaggie":5848,"Ah":5849,"Ġeight":5850,"isdom":5851,"urry":5852,"Ġmachines":5853,"Ġearlier":5854,"Ġyesterday":5855,"Ġseems":5856,"Ġrust":5857,"ĠKeep":5858,"Sp":5859,"Ġtraveled":5860,"Ġfolding":5861,"Ġboom":5862,"Ġcracked":5863,"ities":5864,"Ġhugging":5865,"Ġradishes":5866,"ĠStitch":5867,"Ġloving":5868,"Ġopening":5869,"Ġcircus":5870,"Ġcuriosity":5871,"Ġsurrounded":5872,"Ġspraying":5873,"Ġdemanded":5874,"ĠRachel":5875,"Ġpaintings":5876,"amie":5877,"ĠGreen":5878,"Ġremoved":5879,"Ġgaze":5880,"Ġhonk":5881,"Ġpebbles":5882,"Ġhardly":5883,"Ġzookeeper":5884,"Ġcatches":5885,"edding":5886,"Ġsting":5887,"Ġstripes":5888,"Ġpowers":5889,"Ġloaded":5890,"ĠPippa":5891,"Sometimes":5892,"Ġpots":5893,"Ġsplashes":5894,"Ġpetted":5895,"Ġmatching":5896,"ĠDavid":5897,"Thanks":5898,"Ġtoss":5899,"Ġbelly":5900,"Ġstare":5901,"Yummy":5902,"ibb":5903,"Ġwhatever":5904,"Ġapologize":5905,"Ġrocked":5906,"Ġcomforted":5907,"ĠBree":5908,"Ġdecision":5909,"Ġribbons":5910,"ĠBirdie":5911,"ĠJoy":5912,"ern":5913,"Ġstruggling":5914,"Ġexpected":5915,"Ġdeser":5916,"Ġsteep":5917,"wh":5918,"Ġprotected":5919,"Ġneighbors":5920,"Ġsmiley":5921,"Ġchases":5922,"During":5923,"Ġgranted":5924,"Ġcrumb":5925,"ĠMat":5926,"Ġpurred":5927,"Ġdiving":5928,"Ġsadness":5929,"Whiskers":5930,"Ġorganizing":5931,"lowers":5932,"Ġeagle":5933,"Ġheroes":5934,"Ġdipped":5935,"Ġsunlight":5936,"Ġlied":5937,"Ġpastels":5938,"ĠFrank":5939,"Ex":5940,"Ġroads":5941,"Ġsafer":5942,"Ġscru":5943,"ĠMilly":5944,"Ġargued":5945,"Ġgoals":5946,"ĠWater":5947,"Ġdiscovery":5948,"ĠAbigail":5949,"Ġpeered":5950,"Ġvillag":5951,"Ro":5952,"ĠBouncy":5953,"use":5954,"ana":5955,"loe":5956,"Ġtim":5957,"Ġdragons":5958,"Ġbuildings":5959,"Ġbuckets":5960,"Ġparties":5961,"Ġbeard":5962,"Ġwedding":5963,"Rex":5964,"Ġflutter":5965,"Ġplanets":5966,"Ġann":5967,"ĠRobby":5968,"Ġpolishing":5969,"Ġfasc":5970,"ira":5971,"Ġreleased":5972,"Ġcrabs":5973,"ĠGogo":5974,"ĠWatch":5975,"Ġtails":5976,"ĠChr":5977,"Ġsausages":5978,"Ġargu":5979,"ĠJu":5980,"Ġcontro":5981,"Ġbottles":5982,"Ġwiggled":5983,"Ġteased":5984,"uke":5985,"Ġarguing":5986,"Ġsled":5987,"Ġdragged":5988,"Ġpadd":5989,"ĠCar":5990,"Ġroaring":5991,"Ġclearing":5992,"Ġshirts":5993,"Ġmovies":5994,"Ġgathering":5995,"Ġairpl":5996,"Ġwid":5997,"joyed":5998,"Ġteaches":5999,"Ġspiders":6000,"Ġlimes":6001,"ĠRemember":6002,"ĠDare":6003,"Ġoverjoyed":6004,"Ġactually":6005,"Ġsighs":6006,"Ġcontinue":6007,"Ġcuddle":6008,"Ġsoaring":6009,"Ġsmallest":6010,"Ġdrives":6011,"ĠJess":6012,"Ġrip":6013,"Ġsparkles":6014,"Ġsitu":6015,"Ġcubes":6016,"Ġrefres":6017,"Ġtalent":6018,"ĠOlly":6019,"Ġchallenge":6020,"Ġgrandmother":6021,"ĠSplash":6022,"Ġpouring":6023,"umm":6024,"Ġpretends":6025,"Ġfascin":6026,"Ġcuts":6027,"Ġbank":6028,"Ġpeppers":6029,"Ġquarreling":6030,"Ġmane":6031,"Ġshivered":6032,"Ġdusty":6033,"ley":6034,"Ġwondering":6035,"Ġvillagers":6036,"Johnny":6037,"Ġstretching":6038,"njoy":6039,"ib":6040,"Ġweeks":6041,"Ġwherever":6042,"Ġdarker":6043,"Tiny":6044,"jam":6045,"sses":6046,"ĠX":6047,"Ġrings":6048,"Ġonwards":6049,"Ġunited":6050,"Achoo":6051,"ĠKatie":6052,"Ġbead":6053,"ĠBeing":6054,"ĠEveryday":6055,"Ġprettiest":6056,"Ġcaut":6057,"Ġrealize":6058,"Ġcompany":6059,"Ġpenguins":6060,"Fr":6061,"annah":6062,"Luna":6063,"ĠSpring":6064,"Ġbedtime":6065,"ĠWisdom":6066,"Ġcompleted":6067,"ĠLeave":6068,"âĢĿ.":6069,"Ġknights":6070,"Ġflags":6071,"ĠBecause":6072,"ĠJe":6073,"Ġplayroom":6074,"ĠPrin":6075,"Ġactions":6076,"ĠZero":6077,"Ġlearns":6078,"Ġgotten":6079,"Ġpatience":6080,"dam":6081,"inda":6082,"Ġshrug":6083,"Ġkites":6084,"Ġresponsible":6085,"Ġfears":6086,"Ġdestination":6087,"Ġwires":6088,"Ġreply":6089,"Ġdam":6090,"Ġwrist":6091,"aws":6092,"Ġpacking":6093,"Ġfault":6094,"Ġmountains":6095,"Ġapplauded":6096,"Ġscrubbed":6097,"Ġma":6098,"ĠAva":6099,"Ġcrept":6100,"Uh":6101,"ĠEarth":6102,"Ġsatis":6103,"Ġthird":6104,"Ġphot":6105,"Ġpencils":6106,"Ġwins":6107,"Ġsticking":6108,"Ġbaker":6109,"Ġvisiting":6110,"Ġwound":6111,"Ġpeas":6112,"Ġuses":6113,"Ġreminder":6114,"Ġcontrol":6115,"Grandpa":6116,"ashed":6117,"Ġjoking":6118,"Ġawake":6119,"Ġinstruct":6120,"Ġstaring":6121,"ĠPut":6122,"Ġhealed":6123,"Ġhitting":6124,"ĠFish":6125,"Ġscreaming":6126,"Ġbegin":6127,"Rob":6128,"uckily":6129,"ĠFriends":6130,"ĠMoo":6131,"icorn":6132,"Ġhelmets":6133,"enty":6134,"Ġunicorn":6135,"ler":6136,"seek":6137,"Ġtowels":6138,"Silly":6139,"Ġchips":6140,"ica":6141,"Ġcreation":6142,"ĠLou":6143,"Mar":6144,"Ġwasted":6145,"bie":6146,"ĠBehind":6147,"Ġmasks":6148,"laire":6149,"Ġforgi":6150,"Ġitems":6151,"Ġfirefight":6152,"Ġoutdo":6153,"Ġlollipops":6154,"Watch":6155,"Ġheav":6156,"Ġguns":6157,"Ġdied":6158,"ĠHippy":6159,"Ġseas":6160,"Ġglitter":6161,"uddles":6162,"Ġarrive":6163,"Ġweren":6164,"Ġstole":6165,"Ġscales":6166,"Ġperched":6167,"Ġaccom":6168,"Ġlogs":6169,"Ġachieve":6170,"die":6171,"Ġpracticing":6172,"ining":6173,"Ġwhose":6174,"Stay":6175,"Ġpumpkins":6176,"Ġinstructions":6177,"Ġswoop":6178,"Ġbatteries":6179,"Ġcandies":6180,"Ġagrees":6181,"Ġproject":6182,"Ġsnakes":6183,"Ġchirping":6184,"Benny":6185,"Ġshelves":6186,"Ġprotecting":6187,"Ġexact":6188,"Ġparked":6189,"ĠCra":6190,"Ġpatiently":6191,"Ġactiv":6192,"Ġshoulders":6193,"Ġvideos":6194,"Ġblows":6195,"Fo":6196,"hee":6197,"Ġpromises":6198,"go":6199,"Ġdent":6200,"usan":6201,"ners":6202,"uest":6203,"Ġexamined":6204,"Ġairplane":6205,"jamas":6206,"Doggy":6207,"Ġroses":6208,"Dave":6209,"Ġaccompl":6210,"Ġtasks":6211,"ĠHoot":6212,"Poppy":6213,"ĠBop":6214,"Bunny":6215,"Ġbeads":6216,"Ġbowls":6217,"Ġcrumbs":6218,"zes":6219,"Pete":6220,"Ġlistens":6221,"ĠLove":6222,"ĠCatty":6223,"ĠBrownie":6224,"ĠOl":6225,"Ġbunch":6226,"Ġcough":6227,"Ġdolphins":6228,"Ġguest":6229,"cakes":6230,"Ġrequested":6231,"Ġremote":6232,"Ġimproved":6233,"anta":6234,"Ġbrand":6235,"Ġreaching":6236,"ayla":6237,"Ġalien":6238,"ĠBye":6239,"irm":6240,"ĠJan":6241,"ĠSun":6242,"Ġcopy":6243,"Ġcheering":6244,"Ġphotos":6245,"ĠChew":6246,"ĠJulie":6247,"Bad":6248,"ĠBlink":6249,"Time":6250,"Ġcans":6251,"ĠCuddles":6252,"Ġtimer":6253,"ĠBy":6254,"Ġreplaced":6255,"Ġworkers":6256,"athy":6257,"Mike":6258,"Ġstern":6259,"ĠEnjoy":6260,"George":6261,"Ġneither":6262,"aster":6263,"Ġpassing":6264,"Ġmisses":6265,"Ġcurtains":6266,"Ġconfl":6267,"Chirpy":6268,"Ġrainbows":6269,"Ġrubs":6270,"Ġrolls":6271,"uctantly":6272,"Ġpatted":6273,"ilo":6274,"Ġpajamas":6275,"Ġoutdoors":6276,"esome":6277,"Lola":6278,"dies":6279,"Ġcomplaining":6280,"ĠSquirrel":6281,"Run":6282,"Ġpuppet":6283,"Ġcloses":6284,"Ġbeneath":6285,"ĠPrincess":6286,"Ġlap":6287,"Ġdrums":6288,"Ġtune":6289,"ĠBeth":6290,"ĠMouse":6291,"Ġfilling":6292,"Miss":6293,"angled":6294,"Ġrefuse":6295,"ĠSorry":6296,"Ġsweat":6297,"Ġfaced":6298,"...":6299,"Ġseven":6300,"Ġbalanced":6301,"Ġrescued":6302,"bl":6303,"neath":6304,"Ġquacked":6305,"ĠAbby":6306,"Paul":6307,"istle":6308,"Ġawesome":6309,"Ġ1":6310,"Ġmission":6311,"ĠHowever":6312,"Ġguys":6313,"Ġcautious":6314,"Ġconflict":6315,"Ġcause":6316,"Ġvent":6317,"Ġobserved":6318,"Ġintroduc":6319,"ĠThomas":6320,"Ġpastries":6321,"nie":6322,"ĠOur":6323,"Ġdoctors":6324,"Ġexactly":6325,"Ġrule":6326,"Ġbecoming":6327,"Ġmes":6328,"Ġpoliceman":6329,"uly":6330,"Ġrockets":6331,"you":6332,"ĠYes":6333,"ĠDot":6334,"Ġfairies":6335,"lay":6336,"Ġpout":6337,"An":6338,"Ġinsist":6339,"Ġblooming":6340,"Ġtractor":6341,"Ġfarther":6342,"ĠSad":6343,"avi":6344,"Oops":6345,"Great":6346,"Ġremembering":6347,"Ġincluded":6348,"Ġcurly":6349,"Fine":6350,"Zoom":6351,"Ġteamwork":6352,"zie":6353,"Ġfascinated":6354,"Ġslam":6355,"Ġwobbled":6356,"Ġtruly":6357,"Ġhelpers":6358,"Henry":6359,"Ġsights":6360,"Ġpaddle":6361,"Ġfirm":6362,"Ġstumble":6363,"ĠJilly":6364,"acob":6365,"Ġcaused":6366,"Ġprayer":6367,"Ġspong":6368,"Ġrecording":6369,"kelly":6370,"ais":6371,"Ġstarfish":6372,"Ġtraded":6373,"Ġsupplies":6374,"Ġthro":6375,"Ġpointy":6376,"Ġinviting":6377,"Ġsituation":6378,"eah":6379,"gers":6380,"Ġeveryday":6381,"Ġneighbourhood":6382,"Ġornaments":6383,"ĠAlly":6384,"inkle":6385,"Ġvalued":6386,"Ġadding":6387,"Some":6388,"Ġreluctantly":6389,"Ġdots":6390,"Ġstays":6391,"Ġbare":6392,"Ġtables":6393,"Ġprettier":6394,"Ġdesert":6395,"Ġsnowmen":6396,"Ġsteady":6397,"Ġminerals":6398,"araway":6399,"Ġthorn":6400,"ody":6401,"Ġast":6402,"Ġfaraway":6403,"Ġglasses":6404,"ĠGet":6405,"ĠFoxy":6406,"ĠWelcome":6407,"Ġswooped":6408,"ĠSure":6409,"Ġunf":6410,"ĠTwo":6411,"Ġforks":6412,"Ġusually":6413,"Ġusual":6414,"Polly":6415,"Ġdar":6416,"ĠJamie":6417,"Ġwinked":6418,"Ġsneezing":6419,"Ġsolut":6420,"Ġloading":6421,"Ġsponge":6422,"ĠQuick":6423,"Ġinsects":6424,"ĠOnce":6425,"Ġpans":6426,"Dog":6427,"Ġsobbed":6428,"ĠSanta":6429,"James":6430,"Ġgrowling":6431,"sm":6432,"arter":6433,"Ġthroat":6434,"Ġnoses":6435,"ĠChloe":6436,"ĠJosh":6437,"ĠDizzy":6438,"Ġscarves":6439,"Ġconfident":6440,"ĠWant":6441,"Ġyourselves":6442,"agull":6443,"Ġhomework":6444,"Joey":6445,"ĠStay":6446,"Ġsuperheroes":6447,"Ġsmarter":6448,"Tina":6449,"Ġwindy":6450,"Ġlibrarian":6451,"ĠKids":6452,"Ġgems":6453,"Days":6454,"ora":6455,"Ġunderneath":6456,"Ġkicks":6457,"Ġknowled":6458,"Ġitchy":6459,"Ġjackets":6460,"Ġknowledge":6461,"ĠSkelly":6462,"ĠFor":6463,"Ġsurface":6464,"Ġuntie":6465,"Ġcomm":6466,"ĠDuck":6467,"Ġprincesses":6468,"...\"":6469,"Those":6470,"Hold":6471,"eed":6472,"ido":6473,"Yeah":6474,"coon":6475,"Ġsquares":6476,"ĠHenny":6477,"Ġgiggling":6478,"Ġwarnings":6479,"iar":6480,"Ġreads":6481,"vin":6482,"Our":6483,"Ġchoo":6484,"son":6485,"Ġyounger":6486,"Toby":6487,"Ġclowns":6488,"ĠMix":6489,"Ġropes":6490,"Danny":6491,"Ġbiting":6492,"Ġcrowd":6493,"ĠUnfortunately":6494,"pite":6495,"True":6496,"Ġseagull":6497,"Ġpaddled":6498,"Ġwears":6499,"Ġdelivered":6500,"Ġonions":6501,"ĠMon":6502,"Ġtwirl":6503,"Ġbuzzed":6504,"Ġcomplained":6505,"Ġbumpy":6506,"Ġstem":6507,"Mrs":6508,"Ew":6509,"Ġpiggy":6510,"Ġdirection":6511,"ouch":6512,"Ġdived":6513,"ĠAnne":6514,"Roar":6515,"Ġtangled":6516,"Ġstartled":6517,"ults":6518,"Ġleaning":6519,"ĠAnt":6520,"bbie":6521,"ĠJones":6522,"Ġbadge":6523,"ĠPo":6524,"Ġunp":6525,"Grace":6526,"Annie":6527,"Ġdeal":6528,"though":6529,"Ġvowed":6530,"Ġnapkins":6531,"anes":6532,"Ġrisk":6533,"Ġtickled":6534,"Ġcovers":6535,"Ġpec":6536,"Shh":6537,"Ġyells":6538,"Ġsatisfied":6539,"int":6540,"Ġknocks":6541,"Ġrefreshed":6542,"tuce":6543,"ĠSc":6544,"cuse":6545,"Maggie":6546,"Ġcous":6547,"Ġarrows":6548,"ĠWhistle":6549,"Pe":6550,"Ġwipes":6551,"Ġspeaking":6552,"Ġlettuce":6553,"Ġguessing":6554,"ĠQuack":6555,"Unfortunately":6556,"Ġripe":6557,"ĠSusan":6558,"ĠDodo":6559,"Ġhides":6560,"Ġchoices":6561,"ĠRover":6562,"Ġsigned":6563,"Buzz":6564,"Ġslower":6565,"Ġseeker":6566,"Ġintroduced":6567,"Ġsinger":6568,"Ġcreating":6569,"Ġcent":6570,"Ġfroze":6571,"ĠMatt":6572,"uggles":6573,"Ġjoked":6574,"Ġsqueal":6575,"Ġexplorers":6576,"Ġtoaster":6577,"fit":6578,"Ġavo":6579,"Sophie":6580,"anging":6581,"Ġpraying":6582,"Ġwritten":6583,"Ġdiscovering":6584,"ĠDara":6585,"Ġprovided":6586,"Ġrefle":6587,"ĠLion":6588,"Excuse":6589,"Ġmushrooms":6590,"ĠPaws":6591,"Ġknees":6592,"Ġpaying":6593,"ĠJeff":6594,"Ġhider":6595,"ences":6596,"ĠAsh":6597,"Ġwandering":6598,"Charlie":6599,"Ġimages":6600,"Ġstung":6601,"ĠWink":6602,"Ġmagnets":6603,"Ġbarely":6604,"Ġbehaving":6605,"Ġtipto":6606,"?\",":6607,"Ġmarked":6608,"brush":6609,"rrr":6610,"ĠDee":6611,"Ġrestored":6612,"Ġleading":6613,"lled":6614,"Ġchuck":6615,"Ġnine":6616,"ados":6617,"Ġgreet":6618,"Teddy":6619,"Ġbravery":6620,"Ġgears":6621,"ĠSnuggles":6622,"ky":6623,"Ġcompetition":6624,"eal":6625,"Ġoutfit":6626,"oline":6627,"Ġwishing":6628,"Ġproperly":6629,"Ġventured":6630,"aa":6631,"tle":6632,"Ġchat":6633,"Ġdances":6634,"Ġmuscle":6635,"Ġpens":6636,"Ġsalty":6637,"amb":6638,"ĠBetsy":6639,"Ġranger":6640,"ĠZiggy":6641,"Ġdeserve":6642,"Ġhowever":6643,"sequ":6644,"Ġmatters":6645,"Ġdarkness":6646,"Ġburst":6647,"ĠFu":6648,"Ġrainy":6649,"Ġcobwebs":6650,"Ġruining":6651,"Ġchefs":6652,"Ġbak":6653,"Ġconsequ":6654,"Ġblocking":6655,"usted":6656,"itely":6657,"sty":6658,"Ġscur":6659,"Ġvines":6660,"Ġfab":6661,"abel":6662,"Ġfabric":6663,"Ġentire":6664,"Ġbasement":6665,"Ġleast":6666,"Ġperformed":6667,"ĠBuggy":6668,"Sn":6669,"Ġscratches":6670,"Ġheavier":6671,"ĠClaire":6672,"Ġmints":6673,"Ġavocados":6674,"Ġtwirling":6675,"However":6676,"ĠLinda":6677,"rink":6678,"fl":6679,"Ġlosing":6680,"Ġscurried":6681,"ĠJenna":6682,"Ġsunflowers":6683,"Ġrainco":6684,"Ġswords":6685,"Tweet":6686,"Ġclick":6687,"ĠLaser":6688,"agic":6689,"Ġjobs":6690,"Ġsilent":6691,"Ġflames":6692,"Ġnecklaces":6693,"ĠLuke":6694,"Alex":6695,"Ġrelief":6696,"ĠGrumpy":6697,"Jerry":6698,"Ġsnat":6699,"Ġrotting":6700,"Ġsewed":6701,"len":6702,"Listen":6703,"Ġtricky":6704,"Follow":6705,"Ġlighter":6706,"ophia":6707,"Ġbows":6708,"ĠSkip":6709,"Ġexha":6710,"Ġsolution":6711,"Ġconsequences":6712,"ĠLena":6713,"Ġstain":6714,"Ġtires":6715,"Beep":6716,"Ġunpacked":6717,"Ab":6718,"Ġpartic":6719,"rance":6720,"Ġraces":6721,"Ġpins":6722,"Ġbumps":6723,"Ġwraps":6724,"Ġwow":6725,"Ġbacked":6726,"Ġdecorating":6727,"aisies":6728,"cher":6729,"Ġdentist":6730,"Ġneedles":6731,"Ġpurr":6732,"Ġcautiously":6733,"Ġlifting":6734,"izzie":6735,"ĠPr":6736,"Ġaccomplish":6737,"Ġdaisies":6738,"Ġtriangles":6739,"ept":6740,"Ġhesitated":6741,"Ġannoy":6742,"ĠThose":6743,"Ġgrowls":6744,"Ġcrackers":6745,"oke":6746,"Ġstomped":6747,"Ġcott":6748,"Ġgrabbing":6749,"Ġbodies":6750,"Ġfigured":6751,"Ġmater":6752,"ĠTree":6753,"Ġbuying":6754,"ĠFido":6755,"ĠRolly":6756,"Ġmaterial":6757,"ĠAdam":6758,"Ġswans":6759,"Ġties":6760,"Ġgri":6761,"vers":6762,"Ġgrows":6763,"Ġsweets":6764,"ĠGoodbye":6765,"Ġowners":6766,"Ġcheeks":6767,"Ġflavor":6768,"ĠCathy":6769,"Big":6770,"ĠEl":6771,"Ġsuffering":6772,"vroom":6773,"Ġfact":6774,"ĠJessie":6775,"Ġgroups":6776,"bly":6777,"Ġforehead":6778,"Harry":6779,"Ġlungs":6780,"Ġrepa":6781,"Ġinterested":6782,"Ġbakery":6783,"Lilly":6784,"ĠMilo":6785,"Ġfreed":6786,"itches":6787,"ĠNothing":6788,"Ġchuckled":6789,"Tw":6790,"For":6791,"Ġswept":6792,"Ġconn":6793,"?'":6794,"Ġthud":6795,"Ġexhausted":6796,"Ru":6797,"Ġtapped":6798,"Ġtwinkling":6799,"Ġnect":6800,"rosty":6801,"Ġnectar":6802,"elle":6803,"Ġfeast":6804,"Ġdarling":6805,"indr":6806,"ĠMad":6807,"Ġworries":6808,"Ġuns":6809,"Ġtunnels":6810,"Ġfuzzy":6811,"Ġreason":6812,"ĠTrust":6813,"Ġrepaired":6814,"ĠBall":6815,"ĠCopper":6816,"Ġactivities":6817,"lets":6818,"Ġpecked":6819,"ĠHannah":6820,"ĠTry":6821,"Ġentrance":6822,"ĠListen":6823,"Ġmeals":6824,"Ġraindr":6825,"Ġcompletely":6826,"Ġparticular":6827,"Ġmailed":6828,"ctions":6829,"Ġnests":6830,"Ġwaiter":6831,"Ġcuddly":6832,"Ġsense":6833,"ĠNana":6834,"Ġcolored":6835,"arky":6836,"Ġleap":6837,"band":6838,"Ġplenty":6839,"step":6840,"Ġpeeking":6841,"ĠCara":6842,"Ġslammed":6843,"no":6844,"Ġplayers":6845,"ĠBirthday":6846,"Ġbudge":6847,"Ġmonth":6848,"ĠQ":6849,"Ġscra":6850,"Ġforgets":6851,"Ġden":6852,"Ġhandful":6853,"ĠOliver":6854,"Ġmer":6855,"ossible":6856,"Ġgenie":6857,"ĠChrist":6858,"Ġstool":6859,"iggie":6860,"ĠPup":6861,"Ġtalks":6862,"Ġfeeding":6863,"Ġpassports":6864,"Ġfilms":6865,"ĠSuzie":6866,"Ġbaths":6867,"Ġimpossible":6868,"Ġdetermination":6869,"May":6870,"Ġprinting":6871,"boat":6872,"Ġdesigned":6873,"Ġbuses":6874,"Ġopp":6875,"lephant":6876,"ueen":6877,"Ġbars":6878,"Ġsuitcase":6879,"Ġcounts":6880,"Ġstolen":6881,"Ġspreading":6882,"ĠSnap":6883,"Ġspikes":6884,"Ġsteer":6885,"Ġwiping":6886,"Ġlamb":6887,"etty":6888,"ĠRain":6889,"Ġhonked":6890,"Whee":6891,"nies":6892,"Ġcowb":6893,"Ġseparated":6894,"blings":6895,"Ġsiblings":6896,"Ġhops":6897,"Ġchop":6898,"Ġfires":6899,"Ġsewing":6900,"ĠTwinkle":6901,"Ġfever":6902,"Ġtwinkle":6903,"Ġty":6904,"Ġcamping":6905,"ĠMira":6906,"Ġlower":6907,"Ġchanging":6908,"yes":6909,"retch":6910,"Ġbehavi":6911,"ĠBloom":6912,"mas":6913,"Ġliqu":6914,"Ġcelebration":6915,"but":6916,"Ġdollhouse":6917,"Ġsquealed":6918,"Sunny":6919,"Ġbackward":6920,"Ġage":6921,"Ġsnatched":6922,"Ġcash":6923,"ho":6924,"Ġtwice":6925,"Ġsway":6926,"lee":6927,"itched":6928,"Ġcelebrating":6929,"ĠPeanut":6930,"Ġache":6931,"Ġshrinking":6932,"Ġkings":6933,"weed":6934,"rious":6935,"Rose":6936,"Ġshops":6937,"Ġkittens":6938,"cope":6939,"ĠJacob":6940,"ĠGina":6941,"aura":6942,"Ġhus":6943,"Ġtouches":6944,"ĠJessica":6945,"airy":6946,"Ġpancakes":6947,"Ġavoid":6948,"Ġspat":6949,"ĠFrosty":6950,"rig":6951,"hog":6952,"ĠNina":6953,"Ġpaths":6954,"Sandy":6955,"ĠHold":6956,"cky":6957,"ives":6958,"Ġrotten":6959,"Ġcalmed":6960,"Ġdropping":6961,"Ġseaweed":6962,"Pipp":6963,"iles":6964,"ĠJon":6965,"Ġtwisting":6966,"Ġstroked":6967,"ĠMel":6968,"Ġuntied":6969,"Millie":6970,"llen":6971,"Ġplayhouse":6972,"ne":6973,"Ġstudents":6974,"Ġpuppies":6975,"cl":6976,"ĠSof":6977,"hi":6978,"Ġscrews":6979,"Ġastron":6980,"ĠRe":6981,"Ġsomebody":6982,"igning":6983,"Ġliquid":6984,"ammy":6985,"Ġsquish":6986,"Ġwakes":6987,"ĠWoof":6988,"Ġbracelets":6989,"Ġastronaut":6990,"immer":6991,"aren":6992,"Ġthrown":6993,"Ġloops":6994,"ĠOther":6995,"Luckily":6996,"Ġplain":6997,"Ġwrapping":6998,"Ġtramp":6999,"Ġplanning":7000,"Ġaimed":7001,"Ġskunk":7002,"Ġpennies":7003,"Ġshoo":7004,"Dan":7005,"Ġdancers":7006,"Ġlifts":7007,"Ġsparks":7008,"Ġfirefly":7009,"pen":7010,"Ġposter":7011,"yan":7012,"Ġcust":7013,"endy":7014,"ĠChristmas":7015,"Ġrewarded":7016,"Ġobjects":7017,"Ġdirections":7018,"ingo":7019,"using":7020,"Ġreflection":7021,"Ġhusband":7022,"Take":7023,"âĢĶ":7024,"river":7025,"Ġclues":7026,"uppy":7027,"Ġleads":7028,"Ġincreased":7029,"Ġblocked":7030,"Ġrising":7031,"Ġdod":7032,"Ġcousin":7033,"Kate":7034,"ĠWithout":7035,"Ġforgetting":7036,"ĠYesterday":7037,"rigued":7038,"Ġcustom":7039,"ude":7040,"Ġbeginning":7041,"Ġtrampoline":7042,"Ġstorekeeper":7043,"Ġpouted":7044,"Ġzebras":7045,"Ġaff":7046,"Ġhedgehog":7047,"Ġborrowed":7048,"ĠâĢĺ":7049,"ĠRollie":7050,"Ġsnowfl":7051,"Ġcountryside":7052,"Jump":7053,"Ġmesmer":7054,"Ġvehicles":7055,"ĠJay":7056,"Ġinstrum":7057,"Pat":7058,"ĠMic":7059,"ĠKayla":7060,"ĠUp":7061,"Ġfrowning":7062,"ivity":7063,"Under":7064,"Ġmarker":7065,"yond":7066,"Ġbeyond":7067,"Ġpresses":7068,"ĠQueen":7069,"ĠOnly":7070,"Ġdamage":7071,"ivery":7072,"ĠTara":7073,"ĠBiggie":7074,"iece":7075,"Ġfart":7076,"jo":7077,"Ġhealth":7078,"Ġnibb":7079,"Ġwhispers":7080,"Ġslips":7081,"Ġswimsuit":7082,"ĠJulia":7083,"Ġflapping":7084,"Ġwarmer":7085,"armer":7086,"Ġtiptoed":7087,"Ġregretted":7088,"Zip":7089,"itted":7090,"Ġlaying":7091,"ĠRobo":7092,"Ġyelp":7093,"ades":7094,"ĠFire":7095,"Ġeverybody":7096,"Ġglued":7097,"Ġrains":7098,"Ġcreations":7099,"Ġhearing":7100,"Ġswir":7101,"Ġcolder":7102,"iversity":7103,"ael":7104,"ĠElephant":7105,"Ġshaped":7106,"Ġfins":7107,"Ġstreets":7108,"Out":7109,"Ġcushions":7110,"Ġrusty":7111,"Ġsan":7112,"Ġfarthest":7113,"Ġcreativity":7114,"ĠMikey":7115,"Ġsale":7116,"ans":7117,"Always":7118,"Co":7119,"Ġstrongest":7120,"Ġfits":7121,"ĠSparky":7122,"ibbit":7123,"Ġbells":7124,"Ġdollars":7125,"Ġearn":7126,"iam":7127,"ĠLarry":7128,"ĠMoon":7129,"angle":7130,"ĠChirp":7131,"Ġlending":7132,"eese":7133,"Ġcashier":7134,"Milly":7135,"Ġincluding":7136,"ĠRich":7137,"Ġsniffs":7138,"Ġraincoat":7139,"Ġsank":7140,"Ġstopping":7141,"Ġtrembled":7142,"Ġsource":7143,"iti":7144,"imon":7145,"ĠMissy":7146,"Ġindeed":7147,"Ġwobbly":7148,"ters":7149,"Ġguests":7150,"Ġsingle":7151,"Ġrecommended":7152,"Ġwee":7153,"Ġspells":7154,"Ġaccomplishment":7155,"Ġbelts":7156,"Ġsurprising":7157,"Ġends":7158,"Ġhopeful":7159,"Ġseasons":7160,"ĠTake":7161,"ĠSnowman":7162,"Bear":7163,"ĠEls":7164,"Ġplans":7165,"ichael":7166,"Ġencourag":7167,"Ġsupported":7168,"stick":7169,"illed":7170,"Ġsuffered":7171,"Ġartist":7172,"Ġperformance":7173,"Nina":7174,"eet":7175,"Ġslowed":7176,"Bill":7177,"Ġgross":7178,"Ġflavors":7179,"iding":7180,"Ġspins":7181,"ertain":7182,"cho":7183,"Ġlabels":7184,"Quack":7185,"Ġdelivery":7186,"Ġraindrops":7187,"uing":7188,"arac":7189,"Ġraccoon":7190,"Ġforgiving":7191,"the":7192,"ĠWoo":7193,"obody":7194,"Ġpours":7195,"ility":7196,"Ġstands":7197,"Ġturtles":7198,"Ġvanilla":7199,"uess":7200,"Ġbeam":7201,"Ġrecipe":7202,"Ġtying":7203,"ĠSw":7204,"Ġgeese":7205,"Ġwilling":7206,"Ġdrawn":7207,"Ġrobber":7208,"Vroom":7209,"Ġwept":7210,"ĠBones":7211,"Ġcharac":7212,"Ġcorners":7213,"Ġpops":7214,"ĠSophia":7215,"elia":7216,"Ġqueens":7217,"Ġdie":7218,"Ġsailboat":7219,"Ġgrip":7220,"Ġdrivers":7221,"itude":7222,"Ġmoo":7223,"Ġhallway":7224,"Ġimagining":7225,"Ġseconds":7226,"ĠFuzzy":7227,"Mine":7228,"Ġpreparing":7229,"Ġwidened":7230,"Ġadult":7231,"ĠSpirit":7232,"Ġcoop":7233,"Ġgrocer":7234,"Ġtalented":7235,"ĠBeaky":7236,"ĠIzzy":7237,"ĠPam":7238,"Ġsailors":7239,"ummies":7240,"lling":7241,"Ġsofter":7242,"Ġaside":7243,"Ġwatering":7244,"Ġknots":7245,"Ġsending":7246,"Lulu":7247,"Ġtipped":7248,"Ġunsure":7249,"Ġtreehouse":7250,"Ġhoriz":7251,"ĠLizzie":7252,"Ġnotes":7253,"Ġecho":7254,"igers":7255,"Ġachieved":7256,"Ġhorizon":7257,"Ġsqueak":7258,"Ġdelivering":7259,"Ġhotter":7260,"ĠStella":7261,"Ġpleasure":7262,"Clara":7263,"Ġpupils":7264,"Ġburrow":7265,"Ellie":7266,"Ġangels":7267,"Ġcuriously":7268,"Ġyum":7269,"Ġblinking":7270,"ĠJune":7271,"Ġdet":7272,"Ġtweet":7273,"ĠStretch":7274,"Ġsymbols":7275,"wk":7276,"ĠCindy":7277,"Ġpassen":7278,"ĠRudy":7279,"Ġtummies":7280,"Ġtiss":7281,"Ġpigeons":7282,"Ġfigures":7283,"oey":7284,"umbling":7285,"Ġbandages":7286,"Ġcoup":7287,"ĠDoctor":7288,"Ġrobots":7289,"ĠRobert":7290,"alph":7291,"Ġtossed":7292,"Ġhour":7293,"Ġbackwards":7294,"Maria":7295,"Baby":7296,"Ġroars":7297,"Ġmerma":7298,"uzz":7299,"Ġrather":7300,"atur":7301,"cited":7302,"ĠPlay":7303,"ĠCrab":7304,"Moo":7305,"ighting":7306,"Dolly":7307,"Ġgroceries":7308,"Ġzipping":7309,"Put":7310,"Very":7311,"Ġunw":7312,"prin":7313,"Ġamong":7314,"Ġicing":7315,"Ġblown":7316,"Ġrumble":7317,"Ġafterwards":7318,"!âĢĿ.":7319,"ipper":7320,"Ġscrewd":7321,"ĠTia":7322,"ĠTiti":7323,"Ġglee":7324,"Ġsped":7325,"Ġprove":7326,"ushing":7327,"Ġdip":7328,"Ġovercome":7329,"Ruby":7330,"Quick":7331,"Ġsurfboard":7332,"Ġshovels":7333,"ĠToot":7334,"Ġslices":7335,"Ġmerry":7336,"Ġmate":7337,"Ġwobble":7338,"Jul":7339,"ĠTurt":7340,"ĠAbbie":7341,"Ġheading":7342,"Ġdisturbing":7343,"Ġswall":7344,"Ġreversed":7345,"Ġfirefighters":7346,"Ġswallowed":7347,"Ġchip":7348,"Su":7349,"eds":7350,"Ġscored":7351,"Ġflipped":7352,"ĠJump":7353,"Frank":7354,"Ġsqueezing":7355,"usty":7356,"Ġwaking":7357,"aty":7358,"Ġintrigued":7359,"Sad":7360,"Like":7361,"Ġmaker":7362,"Betty":7363,"ĠBarky":7364,"Ġpuff":7365,"awn":7366,"Ġhawk":7367,"Ġencouraging":7368,"Ġaud":7369,"ĠEx":7370,"onies":7371,"Ġchos":7372,"ĠRon":7373,"Ġchosen":7374,"hew":7375,"ĠAng":7376,"ĠFarmer":7377,"Ġcouple":7378,"Ġdesigns":7379,"Ġslipping":7380,"Ġscrewdriver":7381,"ĠEmmy":7382,"Ġsquishy":7383,"Ġgardener":7384,"Ġcenter":7385,"Ġrivers":7386,"Ġmarkers":7387,"Ġrespond":7388,"Ġtigers":7389,"iley":7390,"Ġjars":7391,"pecting":7392,"Ġfrowns":7393,"bird":7394,"Ġfluttered":7395,"ĠSadly":7396,"Ribbit":7397,"ĠSl":7398,"ĠKit":7399,"Ġfirefighter":7400,"ĠRyan":7401,"Ġsecure":7402,"Ġsuits":7403,"Ġsprinkled":7404,"Ġcreamy":7405,"Ġbru":7406,"ashes":7407,"Ġsharks":7408,"Ġignoring":7409,"Ġgiggles":7410,"Ġtighter":7411,"Ġtissue":7412,"Ġfirmly":7413,"ĠLaura":7414,"ounce":7415,"fly":7416,"Ġshown":7417,"Ġfamiliar":7418,"Ġthorns":7419,"Spike":7420,"ĠWo":7421,"Ġdrawers":7422,"child":7423,"ĠZee":7424,"Car":7425,"Ġexpress":7426,"Ġdaring":7427,"Ġdef":7428,"ments":7429,"Ġcrossing":7430,"Ġaudience":7431,"Ġcloudy":7432,"Ġperforming":7433,"Ġcoloured":7434,"Ġcor":7435,"Ġais":7436,"ae":7437,"ĠNick":7438,"rat":7439,"Ġpedaled":7440,"Get":7441,"Ġmixture":7442,"Ġtil":7443,"Ġgracefully":7444,"ggy":7445,"Ġhaircuts":7446,"Ġyielded":7447,"Ġponies":7448,"Ġdisob":7449,"Ġcrowns":7450,"Ġbits":7451,"Ġtodd":7452,"ĠSleep":7453,"Ġhangers":7454,"Ġnervously":7455,"bbled":7456,"ĠPatch":7457,"Zoomy":7458,"Ġ2":7459,"Ġpays":7460,"Ġpeck":7461,"Ġev":7462,"Ġstroke":7463,"Bang":7464,"fall":7465,"een":7466,"Ġnapped":7467,"Ġrespected":7468,"aven":7469,"Ġminded":7470,"Bessie":7471,"ddie":7472,"ably":7473,"Boys":7474,"Kim":7475,"Ġtested":7476,"ading":7477,"parent":7478,"ĠUniversity":7479,"Ġbeeh":7480,"ĠNear":7481,"ĠTurtle":7482,"Ġneighbours":7483,"Ġsurfing":7484,"arrow":7485,"ĠChris":7486,"vered":7487,"Ġshady":7488,"Ġdarl":7489,"iona":7490,"Ġmagician":7491,"Ġenthusiasm":7492,"Ġdarlings":7493,"Ġwisely":7494,"Ġstitches":7495,"Ġsails":7496,"Dear":7497,"kend":7498,"Ġthoughts":7499,"Freddy":7500,"Ġweekend":7501,"Ġreminds":7502,"ĠTweetie":7503,"Ġtemper":7504,"oring":7505,"antha":7506,"Ġfleas":7507,"Ġsurroundings":7508,"Ġspits":7509,"tha":7510,"Ġteams":7511,"Katie":7512,"Ġfills":7513,"Ġlessons":7514,"Ġflip":7515,"ĠAlong":7516,"Ġpaintbrush":7517,"Ġmelons":7518,"Ġmermaid":7519,"oni":7520,"Ġgrandchild":7521,"Ġexplo":7522,"Ġelbow":7523,"Ġhoops":7524,"Ġsports":7525,"Guess":7526,"Ġlies":7527,"ĠFighting":7528,"rac":7529,"Ġpanicked":7530,"Ġamount":7531,"Ġcleaner":7532,"cused":7533,"Ġlongest":7534,"Ġscooters":7535,"Ġlent":7536,"Ġsill":7537,"ita":7538,"Ġbeloved":7539,"immering":7540,"Pippin":7541,"Ġbeehive":7542,"Alright":7543,"lle":7544,"ongrat":7545,"oga":7546,"Ġoysters":7547,"Ġgrandparent":7548,"ongratul":7549,"Ġforgiven":7550,"Ġmagazines":7551,"ĠWise":7552,"Ġarr":7553,"Ġelf":7554,"Ġrepeating":7555,"Ġdiscussed":7556,"Ġsweetest":7557,"ĠThanks":7558,"Keep":7559,"Ġwadd":7560,"Ġreass":7561,"Ġlace":7562,"ĠMaya":7563,"ĠGranny":7564,"Ġnightmares":7565,"ĠWilly":7566,"Ġtubes":7567,"Ġunderstands":7568,"Ġspoonful":7569,"Am":7570,"Ġnood":7571,"ĠZoey":7572,"Ġbathing":7573,"asty":7574,"Ġmanners":7575,"Ġsweep":7576,"crow":7577,"Ġbully":7578,"Ġnur":7579,"ĠHolly":7580,"Ġwrink":7581,"Ġsprang":7582,"Uncle":7583,"Ġguide":7584,"ĠYet":7585,"Ġcrew":7586,"onna":7587,"ancy":7588,"romise":7589,"Jazz":7590,"Ġbreathed":7591,"ently":7592,"ilda":7593,"while":7594,"steps":7595,"ĠBally":7596,"Ġbulbs":7597,"Ġneare":7598,"Ġgrassy":7599,"Ġspies":7600,"Ġtesting":7601,"Ġwiggly":7602,"Ġcoug":7603,"ĠRoo":7604,"Ġsolving":7605,"Ġsheets":7606,"Ġfootsteps":7607,"ntil":7608,"Afterwards":7609,"Ġspeeding":7610,"Ġfocused":7611,"cept":7612,"ounced":7613,"?!\"":7614,"Ġbraver":7615,"Ġcamel":7616,"Ġmesmerized":7617,"ĠSparkle":7618,"Ġhesitant":7619,"Ġlicking":7620,"Ġrushing":7621,"ĠWell":7622,"ĠPuppy":7623,"Ġjoining":7624,"Ġpolar":7625,"Ġgreeted":7626,"--":7627,"espite":7628,"ĠBubb":7629,"ĠMartha":7630,"Kiki":7631,"Ġworn":7632,"Ġchanges":7633,"Which":7634,"ĠNobody":7635,"Ġmaterials":7636,"undred":7637,"Ġstored":7638,"Ġbicycles":7639,"Ġmast":7640,"Ġanger":7641,"Ġpeacefully":7642,"Leave":7643,"Ġships":7644,"Ġspice":7645,"Ġnuzz":7646,"Ġgonna":7647,"Ġterrified":7648,"ĠShow":7649,"Ġpolitely":7650,"Ġscarecrow":7651,"Ġspills":7652,"Snow":7653,"Ġknives":7654,"ĠMixy":7655,"Ġevil":7656,"ppies":7657,"Ġburying":7658,"ca":7659,"Ġaren":7660,"Ġhealing":7661,"Ġdonkey":7662,"Ġaeroplanes":7663,"Even":7664,"freeze":7665,"Ġmiles":7666,"Ġseals":7667,"Ġscattering":7668,"ĠChewy":7669,"Ġdump":7670,"amboo":7671,"Ġworrying":7672,"Bee":7673,"David":7674,"zoom":7675,"beep":7676,"ĠLenny":7677,"Ġpuzzled":7678,"Ġstacked":7679,"Penny":7680,"ĠKip":7681,"ĠNice":7682,"Ġloses":7683,"ĠWin":7684,"dding":7685,"Ġbaskets":7686,"Ġtravelled":7687,"ĠOkay":7688,"Ġblast":7689,"Ġgazing":7690,"ipes":7691,"Hurry":7692,"Ġtemperature":7693,"ĠTess":7694,"Ġund":7695,"Ġclue":7696,"Ġtasting":7697,"Ġdripping":7698,"Ġbelieving":7699,"Ġpinching":7700,"erm":7701,"Ġsoaking":7702,"Ġrats":7703,"Ġ10":7704,"isc":7705,"Ġsandy":7706,"rect":7707,"ĠIsn":7708,"ĠSimon":7709,"rey":7710,"anwhile":7711,"ĠAbi":7712,"Binky":7713,"Ġbanged":7714,"Ġpunishment":7715,"Ġhumans":7716,"Ġcrashing":7717,"Ġforce":7718,"ĠAna":7719,"Ġhundred":7720,"Ġgest":7721,"ĠLia":7722,"Ġswimmer":7723,"ĠChess":7724,"Ġsnowflakes":7725,"Ġrelaxing":7726,"ĠFairy":7727,"Ġresisted":7728,"Ġbeeped":7729,"Ġquarreled":7730,"form":7731,"Ġramp":7732,"elie":7733,"ĠWendy":7734,"Ġjoins":7735,"abby":7736,"Ġbackpacks":7737,"Ġdressing":7738,"Ġdelayed":7739,"years":7740,"Two":7741,"ĠPh":7742,"Ġtoddler":7743,"ĠLuckily":7744,"ĠTe":7745,"Ġflight":7746,"Ġcovering":7747,"By":7748,"Open":7749,"orter":7750,"Ġbenches":7751,"Ġencouragement":7752,"Ġtoward":7753,"Ġscraped":7754,"Ġfocus":7755,"Ġpurpose":7756,"Bow":7757,"Tony":7758,"ĠJudy":7759,"Ġcorrect":7760,"'.\"":7761,"Spe":7762,"Ġlipstick":7763,"Ġbamboo":7764,"ĠCow":7765,"Ġpotion":7766,"Ġpermitted":7767,"Ġtwinkled":7768,"Ġmonths":7769,"Ġlanguages":7770,"Ġorders":7771,"Ġfreedom":7772,"Ġmaster":7773,"Ġpoppies":7774,"Ġrisks":7775,"shm":7776,"Ġnoodles":7777,"Ġfaded":7778,"Kids":7779,"Ġwounds":7780,"rier":7781,"shmallow":7782,"isions":7783,"ĠJojo":7784,"Ġbirdhouse":7785,"Ġcreams":7786,"ĠHerb":7787,"Ġcells":7788,"Ġannoyed":7789,"opes":7790,"Ġcheers":7791,"Ġadults":7792,"Ġsniffing":7793,"Birdy":7794,"Ġunwra":7795,"Ġpuck":7796,"ecca":7797,"Ġfloats":7798,"Ġopinions":7799,"Buzzy":7800,"andas":7801,"Instead":7802,"Ġflown":7803,"Ġscen":7804,"Ġhandsome":7805,"Ġsneezes":7806,"ĠMint":7807,"Ġnodding":7808,"Ġ5":7809,"Ġsmelling":7810,"Ġburnt":7811,"Ġdrifted":7812,"bage":7813,"ider":7814,"Ġwithin":7815,"Ġheight":7816,"Ġscient":7817,"Ġbothering":7818,"Ġdamaged":7819,"Ġslither":7820,"Ġtearing":7821,"Ġpleaded":7822,"Ġinstruments":7823,"Ġease":7824,"Back":7825,"da":7826,"ĠMarie":7827,"Ġscientist":7828,"Mira":7829,"Goodnight":7830,"ĠAli":7831,"Ġpound":7832,"Ġhanding":7833,"Ġseller":7834,"Ġgerm":7835,"ĠSay":7836,"Ġwasting":7837,"Ġfiles":7838,"Ġdreamt":7839,"Ġresults":7840,"Carl":7841,"bell":7842,"ĠMabel":7843,"Ġexplains":7844,"Ġdestroying":7845,"Ġbrushing":7846,"Ġhiss":7847,"ousy":7848,"ĠCr":7849,"ĠRazor":7850,"Ġcharacters":7851,"Ġcertain":7852,"ĠSte":7853,"Pandy":7854,"Behind":7855,"Ġsweaty":7856,"ĠHug":7857,"unched":7858,"Ġbusiness":7859,"Ġonward":7860,"Ġtalents":7861,"ĠRobbie":7862,"Try":7863,"Ġbravest":7864,"Ġengines":7865,"ition":7866,"Ġsternly":7867,"ĠPen":7868,"Ġpostman":7869,"Ġmosquitoes":7870,"prints":7871,"Ġminds":7872,"cake":7873,"under":7874,"Ġtuck":7875,"Ġscares":7876,"ĠJanie":7877,"urious":7878,"Ġstomp":7879,"Ġapologised":7880,"uel":7881,"Ġmanag":7882,"Ġbitten":7883,"Ġsnuck":7884,"Ġswitched":7885,"Ġdecisions":7886,"Ġreminding":7887,"attered":7888,"Ġtilted":7889,"Ġsingers":7890,"Ġdesper":7891,"ĠPoor":7892,"Ġbehavior":7893,"ashing":7894,"ĠJudge":7895,"bbers":7896,"inny":7897,"Ġsqueaked":7898,"Ġpeeled":7899,"ĠEverybody":7900,"Ġyumm":7901,"Ġpurrs":7902,"ĠBra":7903,"Ġsmashed":7904,"Ġtreated":7905,"ĠUntil":7906,"Ġdisplayed":7907,"Ġrustling":7908,"Ġneatly":7909,"Ġmatey":7910,"ĠBess":7911,"Ġplanting":7912,"Ġmarshmallow":7913,"Ġinsp":7914,"Ġsy":7915,"Ġcracks":7916,"Ġbellies":7917,"Ġyelped":7918,"Ġgrandparents":7919,"aver":7920,"Ġscamp":7921,"Ġshines":7922,"ĠNavy":7923,"Ġhoo":7924,"Ġfailed":7925,"Ġcoloring":7926,"ĠYoga":7927,"line":7928,"ĠMake":7929,"Ġzooms":7930,"rup":7931,"Ġnasty":7932,"Ġbreathing":7933,"Ġcombed":7934,"Ġpandas":7935,"Ġdespite":7936,"Ġaddress":7937,"ighing":7938,"Ġwaterfall":7939,"omp":7940,"uffin":7941,"cc":7942,"ĠLoop":7943,"ĠAngel":7944,"Tilly":7945,"Ġrobbers":7946,"Ġantic":7947,"Ġwider":7948,"Play":7949,"Ġdoorway":7950,"Ġsweaters":7951,"Abigail":7952,"Ġechoed":7953,"evin":7954,"ĠTodd":7955,"Ġedges":7956,"Ġinj":7957,"ĠShadow":7958,"Aunt":7959,"Ġgap":7960,"ĠBlinky":7961,"Ġdisobey":7962,"Liz":7963,"wise":7964,"Ġtar":7965,"ĠMichael":7966,"ĠFlick":7967,"Wake":7968,"orking":7969,"oscope":7970,"Ġmagnif":7971,"Ġtaped":7972,"father":7973,"ulp":7974,"Ġaction":7975,"Ġscolds":7976,"Ġflaps":7977,"Ros":7978,"ĠMindy":7979,"Ġcrawls":7980,"Ġgobbled":7981,"Ġbacks":7982,"Ġswap":7983,"Slow":7984,"ĠEddie":7985,"ĠGary":7986,"Ġwarri":7987,"ĠFishy":7988,"Ġsteth":7989,"Ġsever":7990,"Ġshinier":7991,"Ġprobably":7992,"Ġnewspapers":7993,"Rock":7994,"Ġocc":7995,"Ġseveral":7996,"Lena":7997,"Ted":7998,"Ġencount":7999,"ĠMeg":8000,"Ġplucked":8001,"Ġquieter":8002,"Ġserving":8003,"Ġconnected":8004,"tock":8005,"Ġouch":8006,"ĠShare":8007,"Adam":8008,"igger":8009,"Fl":8010,"Ġgesture":8011,"Too":8012,"Ġplot":8013,"Ġdoorbell":8014,"Ġstudent":8015,"Ġcares":8016,"Ġsquaw":8017,"fire":8018,"ĠSe":8019,"Ġrescuing":8020,"Ġgrandson":8021,"Ġgoo":8022,"Ġspy":8023,"Steve":8024,"Ġrows":8025,"Ġsimply":8026,"iel":8027,"Ġwhistles":8028,"mies":8029,"Magic":8030,"vant":8031,"Ġshorter":8032,"Ġsnaps":8033,"Shrink":8034,"Ġastronauts":8035,"ĠTime":8036,"ssss":8037,"Ġunpacking":8038,"Ġcottage":8039,"Ġswo":8040,"Ġaccidents":8041,"Ġmood":8042,"ĠNut":8043,"ibi":8044,"Ġswollen":8045,"anie":8046,"ĠMousy":8047,"abelle":8048,"ĠZippy":8049,"Zara":8050,"Ġbothered":8051,"Hannah":8052,"Ġstethoscope":8053,"Mat":8054,"found":8055,"Ġcausing":8056,"Ġtrusting":8057,"Mad":8058,"Ġdresser":8059,"Ġleapt":8060,"Ġsou":8061,"aint":8062,"Ġpills":8063,"Ġproper":8064,"retty":8065,"Ġthroughout":8066,"Olive":8067,"ĠDina":8068,"Ġrunner":8069,"Ġprayers":8070,"Jamie":8071,"Thomas":8072,"Ġjoyful":8073,"mates":8074,"Ġlocks":8075,"ĠPrince":8076,"Ġgoats":8077,"what":8078,"Ġtarget":8079,"rest":8080,"ĠWait":8081,"ĠKaren":8082,"ĠBang":8083,"Ġdears":8084,"Red":8085,"Ġmunch":8086,"Ġflips":8087,"ĠCro":8088,"artled":8089,"Ġwaddled":8090,"Ġlowered":8091,"Ġstepping":8092,"Ġcons":8093,"ĠJackie":8094,"Ġteachers":8095,"ĠToys":8096,"Ġcowboy":8097,"Ġinches":8098,"Ġenvelopes":8099,"Ġchar":8100,"ears":8101,"ĠVroom":8102,"Ġexplorer":8103,"Ġanticip":8104,"Ġplayd":8105,"ĠRuff":8106,"ĠRalph":8107,"ĠReady":8108,"Nice":8109,"unity":8110,"Finn":8111,"ĠBad":8112,"ening":8113,"ĠPl":8114,"Ġfloors":8115,"Ġknocking":8116,"Ġefforts":8117,"Ġuniforms":8118,"lied":8119,"ĠTri":8120,"Ġaware":8121,"Ġfootprints":8122,"ĠFiona":8123,"Ġnearly":8124,"Someone":8125,"llas":8126,"ĠRia":8127,"Ġdisc":8128,"Ġsens":8129,"Ġwhimp":8130,"Ġtrot":8131,"Ġglitt":8132,"ivi":8133,"Ġappreciation":8134,"oosh":8135,"Ġnecks":8136,"Ġchecks":8137,"Ġcollap":8138,"Ġlapt":8139,"Ġexcept":8140,"Ġplug":8141,"Ġcharge":8142,"ĠJacky":8143,"Ġfluttering":8144,"Ġumbrellas":8145,"Ġstamped":8146,"acy":8147,"Ġsandcastles":8148,"Ġstatues":8149,"Hoppy":8150,"omb":8151,"ĠHoney":8152,"ails":8153,"Ġshrank":8154,"ĠDavey":8155,"ĠAmelia":8156,"iscuit":8157,"rily":8158,"Ġfinishing":8159,"Ġprick":8160,"Ġadds":8161,"rons":8162,"Ġchocolates":8163,"Ġhunters":8164,"Ġstroll":8165,"Ġdodged":8166,"Ġpassengers":8167,"Ġgerms":8168,"oger":8169,"Ġwrigg":8170,"Ġaprons":8171,"Ġaisle":8172,"Ġsets":8173,"ĠGerry":8174,".'\"":8175,"Ġweeds":8176,"Ġnovels":8177,"ĠTaking":8178,"order":8179,"Ġdemanding":8180,"Ġscratching":8181,"Ġmeows":8182,"Dr":8183,"issa":8184,"Ġnurses":8185,"Lucky":8186,"Ġminding":8187,"Ġdiscussing":8188,"Ġkilled":8189,"urrender":8190,"ĠCari":8191,"Ġdriveway":8192,"Ġbecomes":8193,"Ġhaird":8194,"Ġtoolbox":8195,"ĠEliz":8196,"Ġlaptop":8197,"ĠDespite":8198,"Ġposit":8199,"Ġattack":8200,"ĠSadie":8201,"Speedy":8202,"ĠGl":8203,"sol":8204,"Ġbounces":8205,"Ġscampered":8206,"Ġdeed":8207,"Ġsprays":8208,"Ġsupplied":8209,"Ġtempt":8210,"Ġburns":8211,"Ġfriendships":8212,"Ġsuggestion":8213,"Ġslapping":8214,"Ġclosing":8215,"Coco":8216,"Arrr":8217,"Ġbelongings":8218,"Ġinvites":8219,"Ġanticipation":8220,"Ġform":8221,"ĠStan":8222,"Ġspringing":8223,"Ġerase":8224,"Ġcotton":8225,"Ġrays":8226,"Ġtwists":8227,"Ġforgives":8228,"Ġsnuggle":8229,"Ġmodels":8230,"Ġshall":8231,"Ġhumming":8232,"Ġmassages":8233,"onnie":8234,"Ġnewfound":8235,"Ġresponded":8236,"Ġexpecting":8237,"Ġghosts":8238,"ĠShelly":8239,"Ġcheated":8240,"Does":8241,"ĠWooly":8242,"Gigi":8243,"otte":8244,"ĠNe":8245,"Ġtraveling":8246,"Ġalthough":8247,"Ġcond":8248,"Ġbattle":8249,"Ġmommies":8250,"alloween":8251,"Ġaim":8252,"Ġcarries":8253,"Ġinvitations":8254,"Ġrefreshing":8255,"Ġconc":8256,"Ġpresented":8257,"hel":8258,"Ġrowed":8259,"ĠBumpy":8260,"Ġtwenty":8261,"ots":8262,"Ġsquir":8263,"rie":8264,"Ġfoxes":8265,"arlotte":8266,"Ġcooper":8267,"Ġfinal":8268,"Ġduckling":8269,"ĠBibi":8270,"Ġcafe":8271,"Pip":8272,"Ġmarshmallows":8273,"Ġclicked":8274,"ĠZipper":8275,"oor":8276,"Ġbeaver":8277,"Ġdesigning":8278,"Ġjets":8279,"five":8280,"ĠHalloween":8281,"ĠMuffin":8282,"Ġmugs":8283,"ĠWhoever":8284,"Ġdrown":8285,"ĠAlthough":8286,"ĠRuth":8287,"Ġtricycle":8288,"Ġconvin":8289,"Ġpicnics":8290,"Ġoppos":8291,"ĠExcited":8292,"iens":8293,"ĠCle":8294,"po":8295,"Ġcongratul":8296,"ĠPop":8297,"Ġscoops":8298,"ĠMaddie":8299,"Ġaliens":8300,"Ġtravels":8301,"ĠâĢĶ":8302,"Sadly":8303,"Ġtests":8304,"Ġquestioned":8305,"Near":8306,"inted":8307,"Ġcraft":8308,"ĠSpeed":8309,"Ġstrips":8310,"Br":8311,"Mouse":8312,"atty":8313,"Ġdefe":8314,"covered":8315,"ĠFlutter":8316,"ĠBubba":8317,"iri":8318,"Ġfights":8319,"Ball":8320,"roken":8321,"Chloe":8322,"ĠBiggy":8323,"Ġopposite":8324,"Elly":8325,"Find":8326,"Hmm":8327,"Jess":8328,"ĠIm":8329,"Ġrout":8330,"ĠNever":8331,"Ġgrandfather":8332,"Ġafford":8333,"Ġencountered":8334,"Ġdecl":8335,"inch":8336,"Ġraising":8337,"iment":8338,"Ġupside":8339,"ĠVivi":8340,"Ġflashed":8341,"ĠRita":8342,"Ġcalmly":8343,"Meanwhile":8344,"ris":8345,"Ġrealizes":8346,"Ġyawning":8347,"Ġsincere":8348,"Ġbuddy":8349,"ĠSamantha":8350,"Ġcrystals":8351,"Choo":8352,"Trust":8353,"aturday":8354,"Ġcupcakes":8355,"Ġbuckled":8356,"Both":8357,"byes":8358,"Ġwinners":8359,"Ġdefin":8360,"verse":8361,"Josh":8362,"',":8363,"Ġcaw":8364,"Ġweapons":8365,"ĠSaturday":8366,"Ġcheat":8367,"shadow":8368,"Ġpackages":8369,"Ġsacks":8370,"Ġgoodbyes":8371,"Ġcoach":8372,"Ġattem":8373,"Ġmesses":8374,"quet":8375,"Ġconvers":8376,"ĠTruck":8377,"ĠFlo":8378,"val":8379,"Ġdrift":8380,"Ġcaps":8381,"ĠMina":8382,"Ġenem":8383,"Ġenemies":8384,"asha":8385,"Ġscrub":8386,"Ġyummiest":8387,"Ġswallow":8388,"Ġreturning":8389,"rian":8390,"ĠEva":8391,"Ġadmiration":8392,"ĠMegan":8393,"ĠSofty":8394,"Since":8395,"Ġsprout":8396,"Ġunable":8397,"ĠLouise":8398,"ĠPlaying":8399,"ĠAnother":8400,"Ġbless":8401,"Ġsadder":8402,"ooks":8403,"Ġbrightest":8404,"ugging":8405,"Ġfreezing":8406,"ĠYawn":8407,"ĠMan":8408,"Ġrespon":8409,"reverse":8410,"Ġcosy":8411,"ĠOh":8412,"Ġresponse":8413,"Ġbride":8414,"Ġdiamonds":8415,"stalk":8416,"Ġreapp":8417,"Ġgarbage":8418,"Ġhonking":8419,"Ġopport":8420,"Ġstretches":8421,"Ġprevented":8422,"Ġwhispering":8423,"erk":8424,"Ġodd":8425,"Ġwhoever":8426,"antastic":8427,"ĠGray":8428,"Ġawful":8429,"alth":8430,"Ġjourneys":8431,"Ġweighs":8432,"Ġawoke":8433,"Brrr":8434,"Ġdragonfly":8435,"Ġtraps":8436,"Ġspices":8437,"off":8438,"Ġborn":8439,"Hop":8440,"Ġclip":8441,"Ġreassured":8442,"Ġstall":8443,"Ġbeanstalk":8444,"ivia":8445,"Ġargum":8446,"Ġexamining":8447,"Ġbeetles":8448,"Ġautomobiles":8449,"Ġdefinitely":8450,"mine":8451,"ici":8452,"Ġvisitors":8453,"Ġstuffing":8454,"Ġplaydate":8455,"Rachel":8456,"Ġwashes":8457,"ĠMaisy":8458,"broken":8459,"cie":8460,"Ġwiser":8461,"Ġcustomer":8462,"emma":8463,"ĠJolly":8464,"uper":8465,"ĠFlop":8466,"Ġtravelling":8467,"ĠSofia":8468,"Ġbou":8469,"ĠNurse":8470,"Ġhairdress":8471,"Ġbouquet":8472,",'":8473,"Ġtumbled":8474,"orse":8475,"ĠElle":8476,"bble":8477,"Ġdecoration":8478,"Ġcampfire":8479,"Ġbud":8480,"Ġhonesty":8481,"vy":8482,"Ġbomb":8483,"Only":8484,"ebecca":8485,"Ġwelcoming":8486,"Ġoffering":8487,"ĠHello":8488,"Ġwealth":8489,"ĠOt":8490,"Ġtroubles":8491,"Ġincreasing":8492,"Ġoccas":8493,"ĠJax":8494,"Ġloudest":8495,"Ġinspired":8496,"Ġparted":8497,"ĠChick":8498,"Ġgroan":8499,"Ġtype":8500,"ĠNutty":8501,"irac":8502,"Ġwhales":8503,"ĠThunder":8504,"ĠRicky":8505,"yl":8506,"Ġdeclared":8507,"Ġcorrectly":8508,"fus":8509,"yler":8510,"ooky":8511,"Ġbeaks":8512,"ĠQuacky":8513,"Ġcleared":8514,"athan":8515,"Ġcowboys":8516,"ĠDotty":8517,"Ġnuzzled":8518,"Ġexch":8519,"Ġprizes":8520,"Ġwarmly":8521,"Finny":8522,"ĠMissile":8523,"Ġrewards":8524,"Ġobeyed":8525,"Ġcustomers":8526,"ĠFel":8527,"Ġcomforting":8528,"Should":8529,"Ġsirens":8530,"shaped":8531,"ĠFlappy":8532,"Ġconnect":8533,"match":8534,"ĠBingo":8535,"ĠMagic":8536,"Ġtowns":8537,"Honey":8538,"Ġrely":8539,"ĠVicky":8540,"elieve":8541,"Ġfantastic":8542,"ĠFe":8543,"Ġtrigger":8544,"Ġowns":8545,"Ġbends":8546,"Ġinsisting":8547,"Ġspoiling":8548,"Julie":8549,"Ġhairdresser":8550,"Ġpipes":8551,"Ġposes":8552,"Ġshares":8553,"Ġcleans":8554,"Ġsupporting":8555,"Ġsurrendered":8556,"Outside":8557,"Sun":8558,"ĠCook":8559,"rench":8560,"Ġwrinkled":8561,"Ġchopped":8562,"Beth":8563,"Ġmoons":8564,"Ġrecorder":8565,"Ġbeaming":8566,"unes":8567,"ellow":8568,"Ġthanking":8569,"Ġsnowy":8570,"ĠWolf":8571,"Je":8572,"Ġscurry":8573,"Ġenjoyable":8574,"Ġactive":8575,"Ġexperien":8576,"Ġcoral":8577,"ĠPiggy":8578,"Ġdollar":8579,"Ġenviron":8580,"worm":8581,"elope":8582,"Ġloc":8583,"ĠKevin":8584,"ĠBub":8585,"Ġstreamers":8586,"Suzy":8587,"ĠPatty":8588,"udged":8589,"ĠMother":8590,"ĠZack":8591,"inger":8592,"Ġexamp":8593,"Ġshorts":8594,"Ġshooed":8595,"Ġenvironment":8596,"Tree":8597,"Ġill":8598,"Ġscent":8599,"Ġbruises":8600,"ĠLuc":8601,"uster":8602,"Ġgrat":8603,"Bo":8604,"Ġhisses":8605,"Ġplugged":8606,"Ġself":8607,"Ġsteering":8608,"ĠElsa":8609,"Ġwarrior":8610,"Ġvisits":8611,"Ġexercises":8612,"irl":8613,"ĠAr":8614,"aptain":8615,"Ġdangers":8616,"ĠRel":8617,"screen":8618,"Ġcuddles":8619,"Ġsigning":8620,"ĠMin":8621,"Ġunfortunately":8622,"Ġsquished":8623,"ĠLight":8624,"bee":8625,"Ray":8626,"Ġdisappoint":8627,"Ġpilots":8628,"munk":8629,"Ġapplauding":8630,"Ġgratitude":8631,"ĠMoppy":8632,"Ġproviding":8633,"Joy":8634,"Ġting":8635,"alf":8636,"ĠRub":8637,"Ġtickles":8638,"Grow":8639,"Ġbadger":8640,"Ġnights":8641,"Ġjud":8642,"Ġstorms":8643,"ĠElsie":8644,"Ġconvinced":8645,"Ġyoun":8646,"ĠKelly":8647,"Ġresponsib":8648,"Ġchoosing":8649,"Abby":8650,"Ġbrains":8651,"Ġactivity":8652,"Ġnearest":8653,"Ġyoungest":8654,"Ġexploded":8655,"Ġarranged":8656,"Ġcoughed":8657,"Claire":8658,"ĠTre":8659,"ĠFly":8660,"Ġrewarding":8661,"Mon":8662,"good":8663,"pr":8664,"Ġbond":8665,"Ġsunscreen":8666,"Ġpeep":8667,"erpiece":8668,"ĠFloppy":8669,"ĠSweet":8670,"asers":8671,"ĠKaty":8672,"ĠTweety":8673,"ĠSal":8674,"ĠJoan":8675,"ilities":8676,"Ġannoying":8677,"sn":8678,"Ġsoapy":8679,"Splash":8680,"meow":8681,"Ġrails":8682,"Ġlaces":8683,"Ġtapping":8684,"Ġoffic":8685,"ĠPine":8686,"Ġthreads":8687,"Ġappreciated":8688,"Ġweighing":8689,"ĠPick":8690,"boards":8691,"Ġheartbroken":8692,"Ġemerged":8693,"Ġcongratulated":8694,"Danger":8695,"Ġtin":8696,"ĠSil":8697,"Ġclerk":8698,"Ġcrocodiles":8699,"ĠPhil":8700,"Ġscram":8701,"Ġattempt":8702,"water":8703,"Ġdial":8704,"ĠAny":8705,"Ġsnug":8706,"Momma":8707,"ĠKay":8708,"Ġmessed":8709,"ĠNancy":8710,"Ahoy":8711,"Ġexample":8712,"Ġhooks":8713,"ĠJonny":8714,"Ġtops":8715,"Ġchipmunk":8716,"Ġsoot":8717,"Ġbathed":8718,"Ġguarding":8719,"ĠTippy":8720,"Ġmanager":8721,"ortunately":8722,"ĠMicroscope":8723,"Friends":8724,"ĠDe":8725,"etah":8726,"ĠBaa":8727,"Ġmasterpiece":8728,"Snowy":8729,"Ġerasers":8730,"Ġfet":8731,"ĠTomorrow":8732,"Ġfinishes":8733,"Ġtips":8734,"Ġcommon":8735,"Ġmemb":8736,"Ġdigs":8737,"Ġnibbled":8738,"Ġtrotted":8739,"Ġmembers":8740,"Ġkinder":8741,"Ġcheetah":8742,"People":8743,"Ġblond":8744,"Ġchews":8745,"Ġparticularly":8746,"ircle":8747,"Ġbeast":8748,"Ġrips":8749,"Lizzy":8750,"Ġargument":8751,"ative":8752,"Ġfaith":8753,"ĠHelping":8754,"Anne":8755,"Ġearned":8756,"ĠCici":8757,"ĠJoke":8758,"Ġobserving":8759,"Ġforgiveness":8760,"ĠJumpy":8761,"Ġcheaper":8762,"Ġmischie":8763,"Ġfishes":8764,"Ġcurl":8765,"Ġinstantly":8766,"Ġexperienced":8767,"Ġcages":8768,"Ġgenerosity":8769,"ĠTwist":8770,"Rosie":8771,"Ġmischievous":8772,"Baa":8773,"Gr":8774,"Ġfoam":8775,"Ġmeowing":8776,"Cindy":8777,"mered":8778,"Ġstores":8779,"Ġgrandd":8780,"ĠAg":8781,"Ġmattered":8782,"etchup":8783,"Ġlimp":8784,"Ġpasses":8785,"Ġteles":8786,"Sque":8787,"Ġsleeps":8788,"Ġbreaths":8789,"iolet":8790,"ettle":8791,"Ġrin":8792,"ending":8793,"Ġtrans":8794,"ordinary":8795,"ĠFreddie":8796,"Ġgasps":8797,"Got":8798,"Ġrumbling":8799,"Ġhatch":8800,"over":8801,"abra":8802,"ĠMomma":8803,"Ġgrassho":8804,"ĠHopper":8805,"Ġaccomplished":8806,"Ġthump":8807,"Ġstrum":8808,"acing":8809,"Ġmats":8810,"Ġsmartest":8811,"Ġtelescope":8812,"Ġwhined":8813,"Ġmoat":8814,"Gina":8815,"ĠIce":8816,"Ġjugg":8817,"Ġfarmers":8818,"Ġscrambled":8819,"Ġdrip":8820,"Robbie":8821,"ĠMore":8822,"Ġgardens":8823,"Ġangrily":8824,"Ġsyrup":8825,"Ġcollapsed":8826,"ouraged":8827,"idey":8828,"Ġforests":8829,"Ġvegg":8830,"Ġdiscoveries":8831,"Ġstyles":8832,"Ġexperiences":8833,"Ġtor":8834,"Ġmedals":8835,"hole":8836,"Ġfaint":8837,"Ġmeaning":8838,"Ġconqu":8839,"ĠDoes":8840,"Ġotters":8841,"Ġtypes":8842,"pit":8843,"Ġfif":8844,"adabra":8845,"Ġsnapping":8846,"Ġhardest":8847,"acock":8848,"ering":8849,"Ġmovements":8850,"Ġexpression":8851,"Ġchilly":8852,"Ġbubbly":8853,"Ġsurv":8854,"Ġaffect":8855,"Pinky":8856,"Ġcourt":8857,"Ġvests":8858,"Ġunfair":8859,"Whenever":8860,"Ġtoothbrush":8861,"Ġextraordinary":8862,"Ġscores":8863,"Never":8864,"Ġattitude":8865,"Ġbluebird":8866,"Ġhorri":8867,"Ġvibr":8868,"ĠMonkey":8869,"Mo":8870,"mel":8871,"lls":8872,"Ġketchup":8873,"Ġspears":8874,"Mother":8875,"ĠBerry":8876,"Ġsooner":8877,"Ġbehaviour":8878,"Ġgrasshopper":8879,"Ġhabit":8880,"Ġpatches":8881,"Karen":8882,"yd":8883,"erts":8884,"Ġmomma":8885,"Ġafar":8886,"Ġpokes":8887,"ĠAshley":8888,"Jon":8889,"Jacob":8890,"lo":8891,"Ġthie":8892,"Ġscri":8893,"ĠFriend":8894,"Ġthicker":8895,"Ġicky":8896,"ĠTerry":8897,"ĠFle":8898,"Ġshrunk":8899,"Ġclassmates":8900,"Ġsqueezes":8901,"Ġslithered":8902,"Ġglittering":8903,"Ġprickly":8904,"Ġexpert":8905,"Ġtopp":8906,"ĠSuper":8907,"ĠRiri":8908,"Ġkneeling":8909,"Ġannounced":8910,"elling":8911,"Ġpeacock":8912,"Ġmarking":8913,"ĠAchoo":8914,"ĠCally":8915,"ctric":8916,"Ġcosts":8917,"Ġwatermel":8918,"Ġzigzags":8919,"Ġthieves":8920,"Ġhood":8921,"ĠApp":8922,"Ġjumper":8923,"Ġskirts":8924,"ĠZog":8925,"Ġacts":8926,"Papa":8927,"Ġwolves":8928,"ĠCloud":8929,"ĠSwim":8930,"Ġcocoon":8931,"Ġconcer":8932,"Ġsqueaky":8933,"Ġthumbs":8934,"Ġboards":8935,"Ġwoodcut":8936,"ĠEliza":8937,"Jessie":8938,"Ġservant":8939,"idence":8940,"Ġcheating":8941,"ĠBecky":8942,"affle":8943,"bu":8944,"Ġraking":8945,"ĠJason":8946,"Ġtrading":8947,"cat":8948,"Ġexplaining":8949,"Ġbiscuit":8950,"rick":8951,"ĠEric":8952,"Ġtidied":8953,"ĠAc":8954,"Ġlunchtime":8955,"Ġluckily":8956,"anced":8957,"ĠPuffy":8958,"Frog":8959,"Ġspilling":8960,"ĠDay":8961,"Fire":8962,"ĠUse":8963,"Ġdesserts":8964,"ĠDaniel":8965,"ĠAnimal":8966,"ĠMaddy":8967,"Ġtransform":8968,"ror":8969,"ĠMine":8970,"âĢ¦":8971,"ĠPig":8972,"ĠGill":8973,"ĠStill":8974,"rough":8975,"Ġmirac":8976,"amma":8977,"ĠCaptain":8978,"Ġmessages":8979,"ĠTammy":8980,"idy":8981,"Ġbeating":8982,"ĠLung":8983,"Ġchill":8984,"ĠGilly":8985,"Ġwindowsill":8986,"oot":8987,"Ġseeking":8988,"Ġactor":8989,"ĠRainbow":8990,"ĠLina":8991,"ĠWilliam":8992,"sse":8993,"its":8994,"ĠMath":8995,"Any":8996,"Ġforeshadow":8997,"pril":8998,"war":8999,"ĠHi":9000,"ĠPinch":9001,"acles":9002,"ĠStep":9003,"Ġleans":9004,"Bluey":9005,"Bounce":9006,"Freeze":9007,"ĠTiger":9008,"Ġhissing":9009,"Ġflashing":9010,"Ġdev":9011,"Ġcloths":9012,"ĠMonster":9013,"racadabra":9014,"Ġwatermelon":9015,"Ġfunn":9016,"Ġwinding":9017,"Ġdiscouraged":9018,"Ġpositive":9019,"pop":9020,"Ġforts":9021,"Ġdripped":9022,"Ġcompete":9023,"ĠFrankie":9024,"Ġwoodcutter":9025,"Ġteapot":9026,"Ġpressing":9027,"Ġdisagreeing":9028,"ĠWil":9029,"icking":9030,"Ġglimmering":9031,"Ġtidying":9032,"Ġtrusts":9033,"Ġkangaroos":9034,"Ġveggies":9035,"ĠPeep":9036,"Ġlanding":9037,"Ġtempted":9038,"ĠFlora":9039,"Ġdock":9040,"Ġformed":9041,"Ġshallow":9042,"Ġoverw":9043,"lers":9044,"Ġfade":9045,"Ġrack":9046,"ĠTooth":9047,"flowers":9048,"eling":9049,"Ġworst":9050,"Ġelectric":9051,"Ġcops":9052,"Ġapology":9053,"Nothing":9054,"ai":9055,"iving":9056,"ĠLife":9057,"creams":9058,"Ġsleds":9059,"ĠSilver":9060,"Ġass":9061,"upid":9062,"Ġcomets":9063,"Bug":9064,"Ġsav":9065,"ĠMag":9066,"ĠJelly":9067,"ĠShark":9068,"Owl":9069,"Ġ4":9070,"Ġpapa":9071,"Ġsituations":9072,"Ġconversation":9073,"Ġofficers":9074,"Rain":9075,"ĠRoger":9076,"ĠCharlotte":9077,"Ġding":9078,"aye":9079,"storm":9080,"Ġsuns":9081,"ĠButter":9082,"âĢĿ,":9083,"Ġpizzas":9084,"Ġzips":9085,"Ġmiller":9086,"Ġstructures":9087,"Ġscurrying":9088,"Ġoverwhel":9089,"Zoe":9090,"Ġfoggy":9091,"ĠHurry":9092,"ĠOlivia":9093,"Ġgranddaughter":9094,"ĠJaney":9095,"ĠAmber":9096,"Ġwebs":9097,"Ġdeserved":9098,"Rabbit":9099,"ĠSasha":9100,"ĠBuster":9101,"ĠSpidey":9102,"ĠYummy":9103,"Ġcubs":9104,"ĠMixie":9105,"Ġopportunity":9106,"Ġsnorted":9107,"ĠGold":9108,"Ġrhino":9109,"Ġdifferences":9110,"ĠTell":9111,"Ġquacking":9112,"Fifi":9113,"Ġheaven":9114,"ended":9115,"ifully":9116,"ĠBirds":9117,"Ġlevers":9118,"Ġunlo":9119,"Ġinchworm":9120,"ĠTyler":9121,"Ġinter":9122,"Ġapproach":9123,"of":9124,"ĠBoom":9125,"Ġposse":9126,"ĠRufus":9127,"Ġseagulls":9128,"Ġcooperate":9129,"ĠFelix":9130,"Ġpossess":9131,"sers":9132,"Ġpose":9133,"?âĢĿ.":9134,"welcome":9135,"ragon":9136,"andra":9137,"ĠSmoke":9138,"Ġdisappointment":9139,"ocular":9140,"Ġspeaks":9141,"Ġsneaks":9142,"Ġbinocular":9143,"Ġartwork":9144,"snap":9145,"Ġscowl":9146,"Ġanswering":9147,"ĠSnake":9148,"Ġsurfed":9149,"ĠGrand":9150,"Ġshortcut":9151,"Ġsipped":9152,"Ġdep":9153,"Ġrobin":9154,"ĠInky":9155,"Ġarrest":9156,"Climb":9157,"Ġreun":9158,"ssy":9159,"Ġamused":9160,"Ġribbit":9161,"ĠAmanda":9162,"Ġunwrapped":9163,"ugar":9164,"Ġpepperoni":9165,"Ġrepeats":9166,"Ġapplause":9167,"ĠMae":9168,"ĠCars":9169,"Ġkeyhole":9170,"Ġcheckout":9171,"Deal":9172,"Lia":9173,"Ġvisitor":9174,"Ġstriking":9175,"Ġpaddling":9176,"Ġpuppets":9177,"Eat":9178,"ĠBrian":9179,"Ġunz":9180,"ĠCircle":9181,"Ġattacked":9182,"Ġcroaked":9183,"Ġspooky":9184,"ĠGus":9185,"orsie":9186,"ĠOtto":9187,"Each":9188,"Ġbeautifully":9189,"Ġgroaned":9190,"gar":9191,"cidents":9192,"Ġchecking":9193,"ĠJean":9194,"Ġswimsuits":9195,"Ġconsider":9196,"uses":9197,"ĠYellow":9198,"jest":9199,"Ġgroom":9200,"Ġwaters":9201,"ĠSqueak":9202,"ĠSlinky":9203,"yle":9204,"Ġinvent":9205,"Luke":9206,"Ġnets":9207,"Ġexams":9208,"udy":9209,"otion":9210,"ets":9211,"Ġdrying":9212,"Ġlump":9213,"agine":9214,"ĠRebecca":9215,"artin":9216,"ĠAuntie":9217,"Ġshrugs":9218,"sie":9219,"ĠSince":9220,"lest":9221,"Ġsobbing":9222,"Ġshyly":9223,"Ġcheerfully":9224,"Ġshoots":9225,"Ġheels":9226,"Ġhonks":9227,"hny":9228,"ili":9229,"esses":9230,"Ġshh":9231,"Ġchin":9232,"anish":9233,"Ġhangs":9234,"Ġhealthier":9235,"Ġwhimpered":9236,"Milo":9237,"ĠMus":9238,"icious":9239,"Ġcaterpillars":9240,"Slowly":9241,"Ġfries":9242,"Ġsquinted":9243,"ĠRatty":9244,"izzes":9245,"Ġmagnifying":9246,"ĠFind":9247,"Ġblamed":9248,"Ġfascinating":9249,"ĠTip":9250,"ching":9251,"Ġsculp":9252,"Ġfrustration":9253,"Ġsculpture":9254,"ouched":9255,"Ġshimmering":9256,"Ġposs":9257,"ĠPeace":9258,"ĠPenelope":9259,"Ġsuck":9260,"edic":9261,"Ġnumbered":9262,"Ġpleas":9263,"Sharing":9264,"ĠWaffle":9265,"Ġnibble":9266,"ibbles":9267,"amil":9268,"ellie":9269,"othy":9270,"Ġflowing":9271,"Ġbaa":9272,"hings":9273,"Ġgrumbled":9274,"ĠOff":9275,"Ġraked":9276,"Pepper":9277,"that":9278,"Ġbuilder":9279,"Bubbles":9280,"eat":9281,"Ġfacing":9282,"Ġguards":9283,"Ġpetting":9284,"Ġswaying":9285,"ĠWoolly":9286,"racted":9287,"ĠHar":9288,"Ġmysteries":9289,"Ġsprinkle":9290,"Ġdetails":9291,"Yesterday":9292,"sey":9293,"Ġflock":9294,"Ġsnort":9295,"Ġenemy":9296,"ĠBoat":9297,"ĠBarry":9298,"Ġgoodies":9299,"ĠCurious":9300,"Ġtablet":9301,"Ġtextures":9302,"Ġwig":9303,"Ġpopping":9304,"Ġcrops":9305,"Ġmarve":9306,"Ġcountries":9307,"ĠGracie":9308,"Ġfans":9309,"Ġwildflowers":9310,"Ġstacks":9311,"how":9312,"ĠJenn":9313,"Ġknobs":9314,"ĠSeeing":9315,"Ġbushy":9316,"ĠTessa":9317,"Ġlocal":9318,"Ġstew":9319,"Ġbowing":9320,"Ġangrier":9321,"Ġhunting":9322,"Ġdrowned":9323,"ĠBubu":9324,"Ġpeeped":9325,"Ġbinoculars":9326,"ĠMatch":9327,"Ġmaps":9328,"Ġniece":9329,"Ġquizzes":9330,"ĠGlow":9331,"Ġmoonlight":9332,"ĠDeal":9333,"ĠJohnson":9334,"Ġoutfits":9335,"OO":9336,"Ġwrench":9337,"Ġwhoosh":9338,"Ġweaker":9339,"Ġmindful":9340,"Ġcrowded":9341,"Squ":9342,"Ġendings":9343,"cycles":9344,"ĠBeef":9345,"Im":9346,"oll":9347,"Ġflashes":9348,"Ġhesitation":9349,"Ġproperty":9350,"Ġboil":9351,"Ġcarts":9352,"Ġability":9353,"Ġunless":9354,"ĠAndrew":9355,"Ġfond":9356,"ĠOxy":9357,"Ġimaginations":9358,"amiliar":9359,"stand":9360,"getic":9361,"Ġglared":9362,"ĠRight":9363,"ĠAccidents":9364,"Ġhaven":9365,"Ġknit":9366,"Ġfolds":9367,"Ġmicrow":9368,"Ġspaces":9369,"Ġunfamiliar":9370,"Tuna":9371,"saw":9372,"ĠPet":9373,"ths":9374,"Ġdirtier":9375,"Ġresponsibility":9376,"bank":9377,"Ġpouch":9378,"Ġdesks":9379,"Ġmicrowave":9380,"Bless":9381,"Ġcracker":9382,"ibly":9383,"Ġdate":9384,"Ġswapped":9385,"ĠOxygen":9386,"rnie":9387,"Ġmember":9388,"Ġaston":9389,"ĠRing":9390,"ĠRavi":9391,"Cra":9392,"Want":9393,"free":9394,"lt":9395,"ĠBun":9396,"Ġwhine":9397,"Ġrebu":9398,"Ġdoorstep":9399,"Ġsoftened":9400,"Ġdisappearing":9401,"ĠHelen":9402,"Ġnatur":9403,"ĠChip":9404,"ĠPeggy":9405,"Ġquacks":9406,"ĠToo":9407,"ĠFix":9408,"Ġlistener":9409,"scar":9410,"Ġwriter":9411,"Ġblushed":9412,"Ġpriv":9413,"ĠSpicy":9414,"venir":9415,"Ġpalms":9416,"upt":9417,"repe":9418,"Ġnoticing":9419,"ĠPast":9420,"Ġsouvenir":9421,"poison":9422,"entr":9423,"ĠRes":9424,"ĠGabby":9425,"Ġdisaster":9426,"Ġlaws":9427,"repeat":9428,"ĠTra":9429,"reg":9430,"str":9431,"endant":9432,"Ġphones":9433,"Robby":9434,"Ava":9435,"ĠLi":9436,"ĠBert":9437,"ala":9438,"ĠCut":9439,"ĠCoal":9440,"Ġconfidence":9441,"Ġstirs":9442,"Ġtimid":9443,"Ġoverwhelmed":9444,"ingly":9445,"Ġflick":9446,"Being":9447,"Ġmayor":9448,"Che":9449,"Ġtugging":9450,"asmine":9451,"ĠPretty":9452,"guess":9453,"ĠMole":9454,"lor":9455,"Ġuntangle":9456,"Ġowls":9457,"Ġmailing":9458,"Ġsatisfa":9459,"Ġinjured":9460,"ĠBooks":9461,"Whose":9462,"ĠWhite":9463,"Ġconcentr":9464,"ĠImmediately":9465,"Ġsatisfaction":9466,"Fly":9467,"Sc":9468,"ĠMarch":9469,"Jeff":9470,"ĠAnimals":9471,"Mittens":9472,"Mabel":9473,"mers":9474,"Ġlim":9475,"ĠEat":9476,"Ġprank":9477,"this":9478,"ĠWonder":9479,"Wiggly":9480,"ĠBonnie":9481,"ĠPot":9482,"ĠRun":9483,"ĠNora":9484,"ĠMelissa":9485,"Ġhooves":9486,"ĠTriangle":9487,"well":9488,"ĠSir":9489,"ĠKn":9490,"Ġfixer":9491,"ĠStartled":9492,"ĠClose":9493,"ĠClean":9494,"icate":9495,"Ġclut":9496,"Ġsnar":9497,"bling":9498,"lish":9499,"Ġskies":9500,"ĠTrucky":9501,"Excited":9502,"Ġinstrument":9503,"ĠHorsie":9504,"ĠFaye":9505,"Ġcapt":9506,"ĠMatilda":9507,"adually":9508,"Ġdisagre":9509,"Susan":9510,"Ġpecks":9511,"Ġcreak":9512,"iky":9513,"Ġstains":9514,"ĠSleepy":9515,"Ġwriggled":9516,"Ġrinse":9517,"ĠSing":9518,"ĠIcy":9519,"Ġshave":9520,"Ġbumping":9521,"ĠHeli":9522,"ĠCrabby":9523,"Ġruff":9524,"ulf":9525,"Ġbending":9526,"Ġswirl":9527,"Ġsandpit":9528,"cessary":9529,"Ġexploration":9530,"Close":9531,"ĠScissors":9532,"Ġchatted":9533,"Playing":9534,"Make":9535,"Ġlever":9536,"Ġrods":9537,"Ġfacts":9538,"Sm":9539,"ĠCandy":9540,"Ġattaching":9541,"ĠBro":9542,"Ġfooled":9543,"Ġburger":9544,"Wally":9545,"Ġglows":9546,"Ġclearly":9547,"Maya":9548,"Ġconcerned":9549,"Ġlava":9550,"Ġcompan":9551,"Ġsalon":9552,"Ġreversing":9553,"Ġcertainly":9554,"Ġsmelt":9555,"els":9556,"Ġcirc":9557,"Ġmotorcycles":9558,"Ġfetched":9559,"Ġtunes":9560,"Ġsometime":9561,"Ġtroll":9562,"Ġoldest":9563,"Ġprod":9564,"Ġfireflies":9565,"Kayla":9566,"Ring":9567,"Ġkissing":9568,"Ġchallenges":9569,"Ġblonde":9570,"ĠBobbie":9571,"Ġwarmed":9572,"Ġbound":9573,"ĠLots":9574,"Ġdifferently":9575,"Ġunlocking":9576,"Ġnatural":9577,"Dino":9578,"Tara":9579,"sa":9580,"erg":9581,"urple":9582,"Ġcutter":9583,"Ġrubb":9584,"Ġcupcake":9585,"Ġriverbank":9586,"Abracadabra":9587,"Ġdetect":9588,"Ġconquered":9589,"Ġalley":9590,"Ġhates":9591,"ĠFlap":9592,"sorry":9593,"Ġrealise":9594,"ĠOpen":9595,"Ġsends":9596,"Ġswirls":9597,"Julia":9598,"ĠFlopsy":9599,"Ġmunched":9600,"ĠCammy":9601,"Isn":9602,"Ġwiggling":9603,"Ġbanging":9604,"Ġsensation":9605,"Ġfist":9606,"Ġclips":9607,"Doctor":9608,"Ġhippos":9609,"ĠReliable":9610,"Ġtoppings":9611,"Hope":9612,"Ġhalves":9613,"Ġstings":9614,"Ġrobe":9615,"Ġbrakes":9616,"ĠGreeny":9617,"Ġswayed":9618,"Ġmiracle":9619,"Fish":9620,"Michael":9621,"ĠPink":9622,"Ġostriches":9623,"ĠClimb":9624,"Ġsurvive":9625,"ula":9626,"Ġotherwise":9627,"bert":9628,"Ġcrushed":9629,"Ġbubbling":9630,"Ġembra":9631,"keepers":9632,"Ġtorto":9633,"Ġtents":9634,"ĠLooking":9635,"ani":9636,"ĠOf":9637,"Ġrepairing":9638,"ĠWorking":9639,"Ġlizards":9640,"Ġstretchy":9641,"Ġvinegar":9642,"ĠFlicker":9643,"Ġrubbish":9644,"ĠEd":9645,"Ġpassenger":9646,"Suzie":9647,"Many":9648,"Ġpounced":9649,"aste":9650,"ĠWhich":9651,"Ġvibrant":9652,"Ġtortoise":9653,"ĠRh":9654,"ĠGrump":9655,"Ġscene":9656,"gr":9657,"Ġbas":9658,"Ġglided":9659,"Ġmooed":9660,"Ġdesperately":9661,"Ġpoop":9662,"Ġintently":9663,"Ġsnip":9664,"Ġcalmer":9665,"Ġcopied":9666,"ĠSundays":9667,"Ġmajest":9668,"ĠLightning":9669,"net":9670,"rap":9671,"Ġjing":9672,"Ġtwel":9673,"ĠPer":9674,"Ġwoken":9675,"Ġjoyfully":9676,"Ġcoolest":9677,"Ġrags":9678,"Ġjudges":9679,"Ġglob":9680,"ĠJody":9681,"Ġlectures":9682,"smelling":9683,"Ġhips":9684,"isible":9685,"lyn":9686,"Ġcousins":9687,"Ġastonished":9688,"Ġcapes":9689,"uno":9690,"ĠLu":9691,"Ġguesses":9692,"Ġarrives":9693,"Ġinvisible":9694,"Ġsuccessfully":9695,"Ġspeaker":9696,"ĠOutside":9697,"Mikey":9698,"Eww":9699,"Ġgooey":9700,"Ġreunited":9701,"Ġbats":9702,"why":9703,"Ġtwelve":9704,"urity":9705,"Ġgoodness":9706,"Ġcomputers":9707,"Ġchatting":9708,"mie":9709,"nded":9710,"Ġstacking":9711,"ĠCarla":9712,"Ġsnowflake":9713,"Ġparks":9714,"istory":9715,"Ġracer":9716,"Ġcommun":9717,"Ġpounds":9718,"Ġdesperate":9719,"Ġreappeared":9720,"Ġcompanion":9721,"Ol":9722,"Zigzag":9723,"bed":9724,"Ġdou":9725,"Ġank":9726,"Ġlevel":9727,"Ġluckiest":9728,"Lou":9729,"Nick":9730,"Ġtale":9731,"Ġdumb":9732,"Ġgall":9733,"ĠSugar":9734,"Ġsells":9735,"Ġcrickets":9736,"Ġstomachs":9737,"Ġsus":9738,"Ġgates":9739,"Ġwinds":9740,"iggles":9741,"ĠSteven":9742,"Ġdisobeyed":9743,"Ġdisagreement":9744,"More":9745,"hile":9746,"ĠWhee":9747,"Ġhoses":9748,"Ġcrisp":9749,"Ġawhile":9750,"Ġpearls":9751,"Linda":9752,"ites":9753,"Ġsoda":9754,"Ġloyalty":9755,"ĠOrange":9756,"Ġpopsic":9757,"Ġtongues":9758,"rent":9759,"usion":9760,"ĠCD":9761,"Ġrider":9762,"ĠRosa":9763,"Ooh":9764,"ĠBlack":9765,"pan":9766,"ĠLaw":9767,"Ġabo":9768,"Ġsurely":9769,"des":9770,"Ġbund":9771,"colored":9772,"ĠAnnabelle":9773,"Ġoccasion":9774,"!âĢĻ":9775,"dog":9776,"rum":9777,"Ġstun":9778,"Ġchicks":9779,"izza":9780,"Ġguitars":9781,"ĠIron":9782,"chief":9783,"ĠApril":9784,"ĠRaven":9785,"Ġintelligence":9786,"Ġalligators":9787,"Ġseparating":9788,"Ġseashe":9789,"Ġrebuild":9790,"Ġaboard":9791,"Found":9792,"Ġcreep":9793,"Ġcroak":9794,"ĠViolet":9795,"Catch":9796,"Ġcuc":9797,"ĠWinky":9798,"Ġlearner":9799,"ĠCare":9800,"ĠOld":9801,"aids":9802,"Something":9803,"Ġcaution":9804,"Ġrins":9805,"Ġwhines":9806,"Ġspiky":9807,"ĠUni":9808,"Ġrevealing":9809,"solut":9810,"working":9811,"ĠSettle":9812,"Ġtickling":9813,"Ġescap":9814,"udge":9815,"ĠBa":9816,"ĠCoby":9817,"Ġunderwater":9818,"Ġcrouched":9819,"ĠRoar":9820,"Ġglobe":9821,"Ġprog":9822,"everse":9823,"Ġblooms":9824,"Ġ''":9825,"Ġappearance":9826,"!'.":9827,"Jan":9828,"fived":9829,"stop":9830,"seph":9831,"urricane":9832,"Ġleaking":9833,"ifer":9834,"ĠSocky":9835,"Ġhatched":9836,"Ġguardian":9837,"Ġstrokes":9838,"Ġtant":9839,"Ġdoves":9840,"arning":9841,"Ġzookeepers":9842,"Ġpersistence":9843,"ealing":9844,"Jessica":9845,"Ġroutine":9846,"Sleep":9847,"Ġblame":9848,"Ġquilt":9849,"Ġsquashes":9850,"Ġpainful":9851,"Ġlighting":9852,"Ġadmit":9853,"Ġtaps":9854,"Chicky":9855,"Snap":9856,"Matt":9857,"Toys":9858,"Ġshattered":9859,"Ġmold":9860,"ĠPuff":9861,"Ġripp":9862,"Ġdeeply":9863,"Ahh":9864,"Ġtempting":9865,"Ralph":9866,"Three":9867,"Ġthrone":9868,"Ġsecurity":9869,"ggles":9870,"ĠSpin":9871,"Ġpeeks":9872,"Ġburgers":9873,"Ġcentre":9874,"Ġsquirted":9875,"Ġelectricity":9876,"con":9877,"ĠLiam":9878,"emon":9879,"Ġcooks":9880,"Ġrealizing":9881,"Ġallowing":9882,"Sophia":9883,"oss":9884,"Ġlar":9885,"cker":9886,"ushes":9887,"orth":9888,"Ġchopping":9889,"Ġexchange":9890,"ĠRace":9891,"Ġsweetly":9892,"Share":9893,"ĠQuickly":9894,"vering":9895,"ĠAlf":9896,"Ġsweeter":9897,"Ġglittered":9898,"Ġrinsed":9899,"isapp":9900,"Sw":9901,"Zero":9902,"Ġgoggles":9903,"ĠInch":9904,"Ġbuilders":9905,"Ġmelody":9906,"Ġmelts":9907,"Ġfurious":9908,"Ġenergetic":9909,"Ġdefeated":9910,"Ġwaded":9911,"asy":9912,"ĠComet":9913,"ĠCats":9914,"Ġsniffled":9915,"Ġchooses":9916,"ĠOtherwise":9917,"Ġtantrum":9918,"ĠGiant":9919,"Ġcompeting":9920,"Ġcontainer":9921,"bang":9922,"ĠMila":9923,"eremy":9924,"ĠSharp":9925,"Ġhudd":9926,"Ġlull":9927,"arted":9928,"ĠDuke":9929,"ĠPark":9930,"ĠRara":9931,"Ġprotection":9932,"Ġseriously":9933,"Ġundone":9934,"Ġattempts":9935,"Ġlarger":9936,"Lizzie":9937,"Ġcluck":9938,"ĠCher":9939,"ĠWhale":9940,"Ġbuckles":9941,"Ġhelicopters":9942,"Ġcooed":9943,"Shoo":9944,"Ġtossing":9945,"ĠPinchy":9946,"Sweet":9947,"ĠTears":9948,"ĠOver":9949,"ĠSmo":9950,"Ġdedic":9951,"ĠHor":9952,"ĠDin":9953,"Still":9954,"Ġhummed":9955,"Ġcourageous":9956,"Squeaky":9957,"solutely":9958,"Curious":9959,"ĠThings":9960,"Ġgod":9961,"Ġaloud":9962,"Ġmuster":9963,"Ġpatients":9964,"Everything":9965,"Ġracers":9966,"Ġdeserves":9967,"Maddy":9968,"Use":9969,"ĠMa":9970,"aps":9971,"ĠDragon":9972,"ĠSquee":9973,"ĠJet":9974,"ĠRusty":9975,"Ġmarvel":9976,"Ġmeets":9977,"Ġtours":9978,"ĠLiza":9979,"ĠHops":9980,"ĠReddy":9981,"Ġwrapper":9982,"Froggy":9983,"ĠCrusty":9984,"Ġbooth":9985,"Ġwhiskers":9986,"Ġnicest":9987,"Ġimproving":9988,"ĠLand":9989,"Rocky":9990,"Surrender":9991,"Ġbold":9992,"Ġimaginary":9993,"ĠStarry":9994,"Ġmeadows":9995,"she":9996,"Ġblades":9997,"Ġobst":9998,"ĠPebby":9999}